<unk>	0
<s>	0
</s>	0
▁	-2.34324
0	-3.2574
2	-4.14288
'	-4.24006
▁de	-4.27283
s	-4.27442
▁que	-4.51871
4	-4.79226
5	-4.82909
8	-4.85172
▁la	-4.87294
▁a	-5.01373
▁en	-5.13617
▁ar	-5.16648
▁av	-5.17284
d	-5.17721
▁project	-5.1824
hubert	-5.18307
homep	-5.1831
converte	-5.1831
▁mp	-5.18443
▁y	-5.33657
▁un	-5.36111
1	-5.48874
S	-5.56157
▁في	-5.622
r	-5.62241
▁le	-5.64819
est	-5.66958
ة	-5.67105
ي	-5.67729
clipsvideoeswild	-5.69443
▁et	-5.7231
▁el	-5.74982
▁c	-5.7567
▁à	-5.80865
▁es	-5.89839
▁من	-5.90461
▁les	-5.91398
▁THE	-5.94031
▁l	-5.94342
3	-5.96803
▁qui	-6.04703
▁vous	-6.05136
▁je	-6.05661
▁se	-6.06596
▁no	-6.08111
▁des	-6.08143
ه	-6.09077
▁pas	-6.09688
dcli	-6.0986
e	-6.10584
▁ال	-6.11452
▁ما	-6.1793
▁TO	-6.1794
▁A	-6.18656
▁AND	-6.19432
6	-6.19769
n	-6.23853
a	-6.27624
7	-6.28415
▁d	-6.29298
9	-6.29383
▁و	-6.32406
▁lo	-6.32852
▁I	-6.36202
وا	-6.37233
▁me	-6.37665
▁ça	-6.37774
▁con	-6.38338
▁pour	-6.38463
▁على	-6.39718
▁qu	-6.41252
▁اللي	-6.4476
▁una	-6.45011
ك	-6.45163
ها	-6.46315
▁une	-6.46595
▁los	-6.46923
▁OF	-6.49502
▁on	-6.49765
ت	-6.51395
▁si	-6.51593
▁ت	-6.53111
▁dans	-6.53789
▁ce	-6.5456
▁j	-6.54839
▁para	-6.54902
▁o	-6.55269
▁THAT	-6.56604
ات	-6.58096
es	-6.61727
▁va	-6.61747
▁por	-6.61986
▁م	-6.68639
ين	-6.69011
▁il	-6.70277
t	-6.70432
on	-6.70552
ية	-6.72095
▁du	-6.72948
▁IN	-6.73495
T	-6.74117
ai	-6.76294
o	-6.76608
نا	-6.78958
▁يعني	-6.8023
▁las	-6.84011
▁sur	-6.85639
▁الم	-6.86537
▁أ	-6.8659
▁más	-6.86764
y	-6.869
▁plus	-6.86926
▁est	-6.88803
▁أن	-6.9089
▁YOU	-6.91231
▁WE	-6.91247
▁IT	-6.91962
▁ب	-6.92107
▁bien	-6.94361
D	-6.94768
▁como	-6.95025
z	-6.95169
l	-6.95511
▁fait	-6.9861
il	-6.99662
▁هو	-7.01851
▁n	-7.02163
▁ne	-7.02273
▁mais	-7.02879
▁ن	-7.03393
▁tout	-7.06367
▁لا	-7.06395
▁أو	-7.10287
▁C	-7.10305
▁te	-7.10731
▁IS	-7.10926
ا	-7.12245
▁del	-7.13211
▁هذا	-7.13235
▁ا	-7.14127
▁أنا	-7.1451
p	-7.15337
▁Et	-7.15536
▁tu	-7.15629
▁par	-7.16491
▁avec	-7.171
هم	-7.1725
ش	-7.17821
▁Y	-7.20212
▁pero	-7.20235
▁donc	-7.22363
▁au	-7.22656
en	-7.23084
▁son	-7.23562
▁كل	-7.24547
▁هي	-7.25867
▁porque	-7.27019
▁este	-7.27178
▁al	-7.28494
v	-7.29421
▁faire	-7.29614
▁ان	-7.30739
▁عن	-7.30868
c	-7.31482
▁très	-7.32078
é	-7.32467
▁muy	-7.32597
do	-7.3422
▁yo	-7.35667
▁بس	-7.3757
▁مع	-7.37979
m	-7.38185
▁بي	-7.38659
▁nos	-7.40404
ون	-7.42178
▁كان	-7.42261
▁peu	-7.42479
▁cette	-7.42578
▁مش	-7.43977
▁الله	-7.44184
x	-7.45007
▁su	-7.45361
ING	-7.45378
▁ya	-7.45486
▁ou	-7.46269
er	-7.46746
▁جدا	-7.47135
▁même	-7.47342
ED	-7.47613
▁sont	-7.47696
كم	-7.48029
▁parce	-7.48157
▁comme	-7.48649
f	-7.49179
▁ده	-7.50039
▁nous	-7.51112
te	-7.51148
؟	-7.51507
▁vraiment	-7.51608
▁THIS	-7.51852
▁دي	-7.53882
▁فيه	-7.54136
▁mi	-7.54213
▁بت	-7.55776
▁WAS	-7.56578
M	-7.58031
nt	-7.58641
▁انا	-7.58971
▁وال	-7.59027
ar	-7.59029
▁aussi	-7.59342
▁SO	-7.59731
N	-7.60544
▁FOR	-7.60977
▁también	-7.61465
u	-7.61959
▁يا	-7.62937
un	-7.63158
▁là	-7.63181
▁THEY	-7.65053
▁todo	-7.65378
▁está	-7.65874
▁qué	-7.66142
▁esta	-7.67242
▁quand	-7.67757
le	-7.68835
▁بال	-7.68933
i	-7.70794
▁m	-7.71108
RE	-7.71167
▁انت	-7.71356
▁هذه	-7.72501
▁ma	-7.72871
ني	-7.73391
▁hacer	-7.73784
▁Donc	-7.74074
lo	-7.74381
mos	-7.74384
b	-7.74747
▁كده	-7.76212
▁HAVE	-7.76508
▁ARE	-7.77321
X	-7.77368
▁ل	-7.79099
▁ser	-7.79321
▁hay	-7.79482
▁او	-7.8098
R	-7.81592
G	-7.81669
▁moi	-7.81828
▁eso	-7.82022
▁WHAT	-7.82121
▁vamos	-7.82379
E	-7.83115
▁BE	-7.83669
▁mon	-7.83898
▁MY	-7.84046
▁لو	-7.84881
B	-7.85106
K	-7.85449
▁BUT	-7.85793
▁Je	-7.85815
▁pues	-7.86104
▁WITH	-7.86427
da	-7.87508
▁ha	-7.88989
me	-7.89113
▁être	-7.89136
▁حاجة	-7.89212
q	-7.89283
h	-7.89786
▁esto	-7.90086
▁وت	-7.90549
la	-7.90767
ment	-7.90804
ción	-7.90919
▁petit	-7.9141
▁ولا	-7.91447
▁ver	-7.91611
▁ON	-7.9215
▁لل	-7.9233
▁peut	-7.92501
W	-7.92517
▁J	-7.92629
و	-7.92765
▁suis	-7.92813
▁tiene	-7.93163
j	-7.9317
م	-7.93503
▁dire	-7.9371
ndo	-7.93988
g	-7.94317
LY	-7.94826
V	-7.95191
▁أنه	-7.95783
▁cuando	-7.96057
C	-7.96174
P	-7.96519
Z	-7.97747
Y	-7.98428
▁beaucoup	-7.98755
▁bueno	-7.99183
▁B	-8.0009
▁La	-8.00111
▁الأ	-8.00163
▁CAN	-8.00645
▁وي	-8.0104
to	-8.01235
▁M	-8.01426
▁aquí	-8.01811
ra	-8.01874
ro	-8.01928
▁بعد	-8.02184
▁الا	-8.02452
▁NOT	-8.0255
▁así	-8.03616
▁En	-8.03705
▁ABOUT	-8.03811
▁إلى	-8.03895
▁ف	-8.04389
▁DO	-8.04713
ne	-8.05324
▁الناس	-8.06388
▁voy	-8.06476
▁فيها	-8.06889
س	-8.07681
▁AS	-8.07942
▁F	-8.0876
L	-8.09768
ir	-8.10098
J	-8.10151
ba	-8.10223
▁faut	-8.10274
▁ممكن	-8.10288
▁re	-8.11135
as	-8.11407
F	-8.11415
▁vais	-8.12314
▁كتير	-8.12433
ur	-8.13431
▁Il	-8.13743
اء	-8.13806
▁entre	-8.13919
▁votre	-8.13987
O	-8.14194
▁ces	-8.1466
H	-8.15589
▁طبعا	-8.15765
▁On	-8.16161
▁يكون	-8.16426
▁tous	-8.16615
▁cómo	-8.16628
▁P	-8.16992
▁elle	-8.1748
▁حتى	-8.17535
▁Mais	-8.17764
an	-8.1794
mente	-8.18037
▁ME	-8.18232
▁لكن	-8.18435
I	-8.19257
▁ese	-8.19277
ó	-8.19368
▁sea	-8.19859
▁mucho	-8.20095
ta	-8.20185
▁ALL	-8.20408
re	-8.20728
is	-8.21315
▁إن	-8.21624
▁vidéo	-8.22009
▁AT	-8.22021
▁لما	-8.23001
▁E	-8.23081
▁PEOPLE	-8.23161
▁لي	-8.23282
▁كانت	-8.23503
▁Si	-8.24256
▁L	-8.24448
▁OUR	-8.24492
▁التي	-8.24575
▁tenemos	-8.2477
os	-8.24813
▁بقى	-8.25131
▁dit	-8.25309
▁زي	-8.2561
▁todos	-8.25655
▁sa	-8.25692
▁عشان	-8.25944
ن	-8.25991
▁g	-8.26073
w	-8.26564
▁algo	-8.26928
د	-8.27172
▁temps	-8.27585
▁أي	-8.27865
▁واحد	-8.27929
▁Alors	-8.28054
▁fois	-8.28358
▁puede	-8.2858
▁G	-8.28674
▁لك	-8.28828
▁t	-8.29139
▁اليوم	-8.29444
AL	-8.29549
it	-8.29659
▁entonces	-8.29842
▁ont	-8.30273
▁THERE	-8.30359
était	-8.30775
▁عم	-8.30873
▁OR	-8.31375
ز	-8.31396
▁وم	-8.31975
ان	-8.32262
ى	-8.32384
se	-8.32416
▁tener	-8.3267
al	-8.32751
ma	-8.32795
in	-8.3297
ته	-8.33591
une	-8.33983
▁cosas	-8.34063
ter	-8.34136
▁O	-8.34544
▁in	-8.34718
▁الت	-8.34852
▁وأ	-8.3508
ر	-8.35461
▁chose	-8.35465
▁احنا	-8.35535
ص	-8.35666
ca	-8.35763
▁esa	-8.3584
hui	-8.3607
▁coup	-8.36092
A	-8.3613
▁deux	-8.36269
ce	-8.3629
▁HE	-8.36305
▁avez	-8.36427
▁sí	-8.36914
▁decir	-8.36988
▁ONE	-8.3709
▁avoir	-8.37102
▁voilà	-8.37152
▁كنت	-8.37234
▁مثلا	-8.37536
▁V	-8.3755
▁sobre	-8.38063
▁بعض	-8.38211
pe	-8.38296
ER	-8.38381
▁IF	-8.38682
▁LIKE	-8.39007
ق	-8.39351
تي	-8.39618
▁إذا	-8.39677
▁he	-8.39832
▁ولكن	-8.40411
▁día	-8.40426
▁dis	-8.40574
▁WHEN	-8.40904
▁D	-8.4102
▁قبل	-8.41058
▁أنت	-8.4155
▁شيء	-8.41665
ير	-8.41823
po	-8.41909
▁vida	-8.41926
▁p	-8.42272
ط	-8.42941
▁b	-8.43198
no	-8.43611
tre	-8.44179
▁voir	-8.44213
▁YOUR	-8.44553
▁ايه	-8.44893
▁لم	-8.44937
▁له	-8.45188
▁بين	-8.45261
▁hace	-8.45367
res	-8.45615
لي	-8.45893
us	-8.45949
▁لازم	-8.4604
▁alors	-8.46354
▁عليه	-8.47055
▁بن	-8.47119
ف	-8.47164
elle	-8.47193
ci	-8.47259
▁Le	-8.47389
▁poco	-8.47409
▁dos	-8.47484
na	-8.47538
▁FROM	-8.47719
▁vie	-8.47842
▁JUST	-8.47901
▁mal	-8.48353
▁encore	-8.48363
▁ils	-8.48364
▁AN	-8.484
▁No	-8.48445
▁puis	-8.48503
▁R	-8.48689
▁été	-8.4869
VE	-8.49199
▁cas	-8.49391
k	-8.49495
ع	-8.49565
▁الع	-8.49714
▁ahora	-8.49894
ب	-8.49917
▁exemple	-8.50148
▁bon	-8.50223
▁monde	-8.50389
▁uno	-8.51206
▁BECAUSE	-8.51396
▁انه	-8.51418
يا	-8.51449
▁تكون	-8.51971
▁f	-8.52029
▁ahí	-8.52397
▁اي	-8.52692
les	-8.52829
▁leur	-8.52842
▁hoy	-8.5311
▁donde	-8.53173
▁sus	-8.53228
▁ejemplo	-8.53624
▁هنا	-8.53656
▁ع	-8.53879
▁co	-8.53982
ور	-8.54156
tion	-8.54225
▁vez	-8.54282
▁H	-8.54308
▁personas	-8.55437
▁إ	-8.55808
▁siempre	-8.56076
▁dé	-8.56259
ant	-8.56291
ti	-8.56444
▁غير	-8.56496
▁pense	-8.56547
co	-8.56679
▁HOW	-8.56736
▁notre	-8.57021
té	-8.57088
▁están	-8.57237
ج	-8.57536
▁tiempo	-8.57614
ول	-8.57661
▁mes	-8.57729
▁شي	-8.57906
ri	-8.58045
▁الفيديو	-8.58056
▁N	-8.58587
▁aux	-8.58628
▁allez	-8.58701
▁k	-8.58937
▁tú	-8.59151
▁U	-8.59221
ge	-8.59255
▁nada	-8.59417
or	-8.59521
▁أول	-8.59608
U	-8.59744
ait	-8.60171
▁déjà	-8.6027
▁HAD	-8.6044
ح	-8.60544
í	-8.60622
ما	-8.61122
▁رح	-8.61154
▁sé	-8.61419
ل	-8.61835
▁mejor	-8.62066
li	-8.62066
▁KNOW	-8.62171
ez	-8.62209
▁شاء	-8.62321
▁soit	-8.62359
▁fue	-8.62373
▁h	-8.62597
ent	-8.6365
▁كيف	-8.6367
▁choses	-8.63677
▁mí	-8.63916
mo	-8.64032
▁trop	-8.64049
▁era	-8.64254
ار	-8.64362
▁Pero	-8.64391
▁THEIR	-8.6467
▁importante	-8.64763
▁THEM	-8.64784
▁WHO	-8.64815
▁sin	-8.64895
▁años	-8.64985
▁tengo	-8.65144
▁mis	-8.65448
▁OUT	-8.65627
▁toujours	-8.65737
اب	-8.66318
▁poder	-8.66367
▁parte	-8.66676
▁verdad	-8.66836
▁UP	-8.67022
▁W	-8.67055
▁لأنه	-8.67181
▁هناك	-8.67245
▁MORE	-8.67353
▁ré	-8.67474
▁nosotros	-8.6773
▁El	-8.67757
▁comment	-8.685
▁كمان	-8.68674
▁lui	-8.69129
▁sais	-8.69143
تك	-8.69148
ست	-8.6915
▁ون	-8.69602
▁ni	-8.69713
▁سي	-8.69858
là	-8.69907
que	-8.70047
▁aujourd	-8.70106
▁w	-8.70609
▁forma	-8.70801
ga	-8.71021
▁van	-8.71083
▁K	-8.71107
di	-8.71114
▁بشكل	-8.71401
▁moins	-8.71502
▁gente	-8.71974
▁Es	-8.72224
▁قال	-8.72355
▁US	-8.72451
▁moment	-8.72611
▁estar	-8.72808
تها	-8.73296
▁creo	-8.73349
▁otro	-8.73559
▁الذي	-8.73787
▁THESE	-8.74016
▁vídeo	-8.74135
▁WERE	-8.7416
يك	-8.74181
▁juste	-8.7419
وه	-8.74204
▁وما	-8.74316
▁gens	-8.74335
▁peutêtre	-8.7468
mp	-8.74749
▁mundo	-8.75296
▁BY	-8.75328
▁fin	-8.7535
go	-8.7535
▁estamos	-8.75357
▁pu	-8.75404
يات	-8.75411
che	-8.7547
▁cada	-8.75753
so	-8.75963
ذ	-8.76157
▁quelque	-8.76542
▁هت	-8.76859
ils	-8.76997
de	-8.77317
▁الموضوع	-8.7749
▁vos	-8.77697
▁الق	-8.77722
يد	-8.77742
▁يوم	-8.7778
▁T	-8.77953
▁non	-8.78055
▁عليها	-8.78147
▁momento	-8.78322
اد	-8.7857
▁pro	-8.78662
▁THINK	-8.78805
▁tienen	-8.78996
▁parler	-8.79042
▁estos	-8.79066
ado	-8.79111
jo	-8.79331
▁vas	-8.79344
▁NOW	-8.79521
▁شو	-8.79521
▁pouvoir	-8.79706
▁Q	-8.79882
▁قلت	-8.80164
▁desde	-8.8043
ía	-8.80479
▁نحن	-8.80794
▁لها	-8.808
▁وفي	-8.80859
avais	-8.80908
▁هاي	-8.81083
ré	-8.81085
▁WOULD	-8.81097
tu	-8.81183
á	-8.81287
▁assez	-8.81287
ac	-8.81289
▁TIME	-8.81404
▁مرة	-8.81442
▁GOING	-8.81515
▁GET	-8.81587
▁os	-8.81653
▁هل	-8.8169
▁vont	-8.81929
▁الج	-8.81996
▁الإ	-8.82138
el	-8.82239
▁après	-8.8242
▁لأن	-8.82575
▁hecho	-8.82608
dos	-8.82618
▁mettre	-8.82743
▁الن	-8.82795
▁نفس	-8.82946
▁avait	-8.8338
ود	-8.83561
▁ir	-8.83633
▁manera	-8.83741
يم	-8.83784
▁han	-8.84101
▁di	-8.84278
ité	-8.8444
ation	-8.84468
▁يت	-8.84629
ES	-8.84644
▁persona	-8.84649
▁VERY	-8.84887
▁ans	-8.8517
ve	-8.85196
▁حد	-8.85238
LL	-8.85462
▁mismo	-8.85828
▁hasta	-8.85964
▁trouve	-8.8602
▁REALLY	-8.86056
▁menos	-8.86318
▁وب	-8.86454
▁DON	-8.86625
IN	-8.86935
▁super	-8.86941
cu	-8.87343
▁والم	-8.87349
▁دا	-8.87844
خ	-8.88787
▁SHE	-8.88898
ال	-8.88994
LE	-8.89589
ion	-8.89617
▁عندي	-8.89765
▁tanto	-8.89776
ciones	-8.89983
ido	-8.90032
▁NO	-8.90037
▁otra	-8.90297
▁eu	-8.90362
▁cuenta	-8.90373
OR	-8.9039
▁quoi	-8.91504
▁muchas	-8.91524
▁لكم	-8.9163
idad	-8.91634
▁طيب	-8.91707
▁De	-8.91825
▁podemos	-8.92119
ja	-8.9245
▁Vous	-8.92479
▁estoy	-8.92681
▁الوقت	-8.9282
▁cha	-8.92845
▁tan	-8.93078
▁مو	-8.93334
ron	-8.93335
IT	-8.93401
▁toutes	-8.93407
يل	-8.93516
▁Entonces	-8.9361
nos	-8.93636
▁مت	-8.94134
▁راح	-8.94203
be	-8.94203
قول	-8.94495
▁WILL	-8.9461
▁يمكن	-8.94755
▁quiero	-8.95176
▁dice	-8.95209
qui	-8.95346
يب	-8.9568
تش	-8.95735
▁الب	-8.95897
ons	-8.95984
▁première	-8.96015
mé	-8.9607
▁tipo	-8.9612
أ	-8.96546
لا	-8.96686
▁veces	-8.97055
▁WANT	-8.97164
▁Ce	-8.97185
صر	-8.97512
▁final	-8.97849
▁Por	-8.98003
▁él	-8.98146
▁مثل	-8.98474
▁الف	-8.99101
avoir	-8.99203
▁pi	-8.9931
▁ومن	-8.99524
▁sans	-8.99528
▁والله	-8.99709
ando	-8.99715
ten	-8.99727
▁nuestro	-8.99939
AR	-9.00065
وب	-9.00908
▁todas	-9.00988
être	-9.01058
يت	-9.01105
وها	-9.01143
▁WORLD	-9.01207
vo	-9.01258
ch	-9.01485
▁chez	-9.01611
▁SOME	-9.02085
▁ustedes	-9.02262
SE	-9.02397
ine	-9.02456
▁بالنسبة	-9.02472
ئ	-9.02606
▁وهي	-9.03196
▁است	-9.03216
ante	-9.03341
▁وهو	-9.03493
وش	-9.03559
▁avant	-9.03654
▁pouvez	-9.03718
دي	-9.03765
▁يقول	-9.03818
▁العالم	-9.04086
▁شوية	-9.04129
▁plein	-9.04153
▁بم	-9.04329
gra	-9.04459
▁عندك	-9.04799
gu	-9.04853
mi	-9.04926
▁toute	-9.05009
▁pueden	-9.05018
▁aller	-9.05116
▁X	-9.05227
▁إيه	-9.0529
▁الك	-9.05393
▁caso	-9.05585
▁nuestra	-9.06106
autres	-9.06133
▁v	-9.06328
▁estas	-9.06469
▁قد	-9.06474
▁WAY	-9.06659
تين	-9.0678
com	-9.0703
▁إنه	-9.07313
▁después	-9.07531
tes	-9.07707
ارة	-9.07792
▁était	-9.07871
ing	-9.08027
able	-9.08203
▁ست	-9.08407
▁prendre	-9.08805
▁niveau	-9.08849
▁tienes	-9.08879
▁parle	-9.09271
▁personnes	-9.09345
au	-9.09353
▁كبير	-9.09374
رة	-9.09467
ia	-9.09496
▁Les	-9.0954
▁HAS	-9.09559
im	-9.09578
سي	-9.09653
ée	-9.09777
▁casa	-9.09789
كون	-9.09792
▁veut	-9.09809
▁jamais	-9.09818
اني	-9.09919
يس	-9.09979
▁SEE	-9.10001
قل	-9.10056
في	-9.10093
ري	-9.10227
ner	-9.10374
▁trabajo	-9.10513
▁côté	-9.10679
▁question	-9.10747
▁partie	-9.10781
▁hablar	-9.10793
▁vu	-9.11025
ث	-9.11303
▁THEN	-9.11398
▁gusta	-9.11531
ada	-9.11645
▁également	-9.11828
▁ناس	-9.11854
▁هن	-9.11882
▁Yo	-9.11971
▁الآن	-9.11979
▁Z	-9.12232
▁LIFE	-9.12305
▁important	-9.12344
cha	-9.12353
▁bastante	-9.12411
aime	-9.12423
▁ses	-9.1252
▁GO	-9.12712
ATION	-9.12723
▁envie	-9.12732
▁etc	-9.12938
▁مصر	-9.13044
▁besoin	-9.13314
▁القناة	-9.13323
▁لأ	-9.13329
▁dar	-9.13529
▁quelques	-9.13537
▁rien	-9.13564
iendo	-9.13668
▁vrai	-9.13702
▁puedes	-9.1378
▁peux	-9.13831
▁maintenant	-9.1397
▁hemos	-9.14056
▁WHICH	-9.14242
▁COULD	-9.14246
▁surtout	-9.14255
▁تت	-9.14271
▁INTO	-9.14406
▁للم	-9.14412
لك	-9.14528
▁WHERE	-9.14636
tra	-9.14649
ión	-9.14665
at	-9.14747
das	-9.14954
▁MAKE	-9.15219
▁ليه	-9.15351
▁autre	-9.15508
ض	-9.15566
▁THINGS	-9.15629
RA	-9.15811
▁ici	-9.15975
▁bo	-9.16072
▁ex	-9.16264
és	-9.16267
▁شخص	-9.16338
Q	-9.16365
كن	-9.16382
▁عايز	-9.16449
▁OTHER	-9.16488
ación	-9.16542
sa	-9.1655
▁savoir	-9.16741
▁قوي	-9.16779
ais	-9.16794
▁pa	-9.16984
▁livre	-9.1704
▁tal	-9.17068
فر	-9.17083
▁fais	-9.17166
در	-9.17341
ST	-9.17392
▁سنة	-9.17406
▁per	-9.17436
بدأ	-9.17446
تر	-9.17526
▁كلها	-9.17635
را	-9.18091
las	-9.18095
يف	-9.18124
▁nombre	-9.18238
fo	-9.18687
▁THOSE	-9.187
▁libro	-9.18702
▁خلال	-9.18896
▁وقت	-9.19079
وز	-9.19266
▁يبقى	-9.19292
ría	-9.19533
▁أكثر	-9.19572
▁point	-9.19579
án	-9.19582
تم	-9.19635
pa	-9.19641
▁BEEN	-9.19746
▁estaba	-9.19749
▁عليكم	-9.19769
صور	-9.1985
▁comp	-9.20018
▁ellos	-9.20072
tar	-9.20093
▁personne	-9.20108
وني	-9.20242
ire	-9.20282
عرف	-9.20286
▁grande	-9.20394
▁tema	-9.20483
à	-9.20593
▁car	-9.20668
gi	-9.20822
▁EVEN	-9.20945
▁sino	-9.21047
▁había	-9.2127
▁SOMETHING	-9.21303
▁x	-9.2134
▁passe	-9.21409
حاول	-9.21769
▁solo	-9.2204
lé	-9.22197
▁año	-9.22206
lu	-9.22242
▁الس	-9.22247
▁ca	-9.22277
▁realmente	-9.22296
▁petite	-9.22339
مر	-9.22444
vi	-9.22504
IC	-9.22583
▁عنده	-9.22629
ie	-9.22921
▁tres	-9.22969
▁Pour	-9.23112
▁pourquoi	-9.23142
los	-9.23173
كو	-9.23174
ام	-9.23233
▁Me	-9.23276
pi	-9.23467
طلب	-9.23623
▁chaque	-9.23673
يه	-9.23736
▁soy	-9.23847
emos	-9.23871
بي	-9.2393
▁ح	-9.23967
ck	-9.2397
▁muchos	-9.24056
▁YEARS	-9.24063
▁SAID	-9.24097
th	-9.24246
▁فا	-9.24301
cer	-9.2433
جل	-9.24402
ou	-9.24671
صل	-9.25017
ont	-9.25118
▁primera	-9.2532
▁Ma	-9.25332
▁Un	-9.25388
▁partir	-9.25504
bo	-9.25564
يح	-9.25727
▁plutôt	-9.2576
▁واحدة	-9.25782
▁tra	-9.25828
▁antes	-9.25916
bi	-9.25922
cho	-9.26042
▁compte	-9.26281
▁صح	-9.26292
▁وكل	-9.26342
▁تعمل	-9.26365
hi	-9.26378
▁souvent	-9.26435
▁êtes	-9.26448
▁simplement	-9.26569
▁أم	-9.26606
▁بالم	-9.26781
IL	-9.26866
▁HER	-9.27198
ailleurs	-9.27394
▁تاني	-9.27449
amos	-9.2751
▁plan	-9.27537
▁poner	-9.277
▁toda	-9.27831
▁premier	-9.27882
▁با	-9.27918
▁يجب	-9.27923
▁cu	-9.27934
▁محمد	-9.27974
ul	-9.28193
يش	-9.28349
ique	-9.28484
nes	-9.28508
estce	-9.28636
▁parece	-9.28693
سم	-9.28714
▁luego	-9.28778
▁Lo	-9.28874
▁video	-9.28948
▁oui	-9.28957
estàdire	-9.28981
▁Se	-9.29022
▁gran	-9.29255
▁simple	-9.29264
▁WORK	-9.29325
▁donner	-9.29336
NE	-9.29359
▁كثير	-9.29447
▁ذلك	-9.29473
▁pre	-9.29548
▁tenía	-9.296
▁فكرة	-9.29638
▁RIGHT	-9.29668
▁ACTUALLY	-9.29709
tro	-9.29711
▁jour	-9.29753
eau	-9.2976
ita	-9.29774
▁trois	-9.29931
▁canal	-9.29947
io	-9.30006
ENT	-9.30526
▁تحت	-9.30615
▁عمل	-9.30659
▁برضو	-9.30761
▁عارف	-9.30853
▁كما	-9.30875
▁أقول	-9.3099
▁NEED	-9.31015
▁الر	-9.31103
▁لهم	-9.3116
▁mois	-9.31173
▁علي	-9.31199
per	-9.31419
▁base	-9.31567
ERS	-9.31818
▁travail	-9.31961
▁grand	-9.32154
▁WELL	-9.3216
za	-9.3236
▁historia	-9.32899
RO	-9.33001
▁اذا	-9.33015
▁place	-9.3304
▁فال	-9.33106
▁façon	-9.33127
وم	-9.3342
nte	-9.33485
▁Así	-9.33494
▁لان	-9.33518
▁cosa	-9.33611
▁Bueno	-9.33702
دا	-9.33822
عمل	-9.33859
▁أيضا	-9.33874
▁rapport	-9.33889
▁عند	-9.33901
▁HERE	-9.33937
قدم	-9.34132
دة	-9.34175
ici	-9.34575
وت	-9.34612
▁سن	-9.34672
▁passer	-9.34729
▁عندنا	-9.34746
▁جماعة	-9.34797
اش	-9.34821
▁منها	-9.34932
if	-9.35063
▁q	-9.35147
TH	-9.35235
فل	-9.35288
LA	-9.35313
لف	-9.35337
اف	-9.35352
▁estce	-9.35385
▁digo	-9.35434
اع	-9.35498
درس	-9.35508
ol	-9.35688
du	-9.35759
▁منه	-9.35833
▁poquito	-9.35955
مان	-9.35989
خر	-9.36013
ue	-9.36015
tas	-9.36338
age	-9.36346
بت	-9.36515
AN	-9.36521
وية	-9.36595
▁pasa	-9.36598
▁ton	-9.36601
▁permet	-9.36673
▁lugar	-9.36791
▁gros	-9.36847
▁inter	-9.36904
▁لن	-9.36918
▁فعلا	-9.37059
EL	-9.37187
▁اول	-9.37221
▁THAN	-9.37418
▁FIRST	-9.37486
op	-9.37591
▁دلوقتي	-9.37594
▁depuis	-9.37674
تنا	-9.37687
▁part	-9.37809
وي	-9.37826
ts	-9.37992
جر	-9.38458
رجع	-9.38498
▁autres	-9.38537
am	-9.38672
▁كبيرة	-9.38807
cé	-9.38807
TE	-9.38815
▁ti	-9.38828
▁sera	-9.38892
▁را	-9.38918
جيب	-9.38952
tiva	-9.39004
▁sol	-9.39005
▁dentro	-9.39168
حس	-9.39185
▁الأول	-9.3928
▁contre	-9.39291
▁موجودة	-9.39325
▁BACK	-9.39354
EN	-9.39481
▁pla	-9.3951
▁السلام	-9.39539
▁otros	-9.39597
▁تقول	-9.39635
▁MOST	-9.39744
▁ta	-9.39789
oc	-9.39821
▁mar	-9.40008
▁فقط	-9.4003
▁مكان	-9.40044
ll	-9.4005
▁sal	-9.40067
▁vale	-9.40169
▁OVER	-9.40191
هد	-9.40267
▁HIS	-9.40286
UR	-9.40365
▁حق	-9.40451
AT	-9.40556
▁évidemment	-9.40584
جي	-9.40625
كا	-9.40627
dor	-9.40663
▁dont	-9.40713
▁تن	-9.40714
▁haciendo	-9.4073
ver	-9.40737
▁llama	-9.40908
LI	-9.4096
يق	-9.41051
▁ALSO	-9.41115
encia	-9.41353
▁الكلام	-9.41361
▁بيت	-9.41403
▁SAY	-9.41424
iste	-9.4148
▁cual	-9.41644
▁además	-9.41685
étais	-9.41758
▁empezar	-9.41828
▁cet	-9.41835
كي	-9.41857
▁هيك	-9.4212
▁الز	-9.42219
▁sens	-9.42317
ID	-9.42336
روح	-9.42587
▁الى	-9.42588
▁بدي	-9.42624
▁جديد	-9.4287
né	-9.42896
RI	-9.42924
ذكر	-9.42957
نزل	-9.42971
▁بأ	-9.4304
▁فيديو	-9.43097
ón	-9.43142
فت	-9.43262
si	-9.43396
▁genre	-9.4344
▁كله	-9.43527
وق	-9.43895
et	-9.43924
▁العمل	-9.44111
▁igual	-9.44146
حط	-9.44161
بل	-9.44162
▁pendant	-9.44206
min	-9.44284
con	-9.44308
▁دائما	-9.44384
autre	-9.44469
▁كانوا	-9.44569
▁وهذا	-9.4457
الي	-9.44579
▁manière	-9.44589
اح	-9.44602
▁ONLY	-9.44641
▁الخ	-9.4468
bu	-9.44779
▁MUCH	-9.44789
كر	-9.44855
▁موضوع	-9.44881
▁Par	-9.44891
car	-9.44923
لة	-9.45008
IVE	-9.45117
▁forcément	-9.45121
nu	-9.45125
▁primero	-9.45317
وس	-9.45325
▁أكتر	-9.45373
▁هال	-9.45514
لم	-9.45687
▁enfin	-9.45703
وف	-9.4581
▁bonne	-9.45819
▁da	-9.45827
▁muchísimo	-9.45883
تعلم	-9.45893
ren	-9.46321
سل	-9.46346
▁دايما	-9.4635
فكر	-9.46356
ven	-9.46395
▁موجود	-9.46438
▁الد	-9.46462
▁MANY	-9.46484
لو	-9.46675
pé	-9.46733
▁تعرف	-9.46795
ولي	-9.46819
▁بها	-9.46845
▁unos	-9.47017
▁طول	-9.47026
▁وش	-9.47089
▁BEING	-9.47156
▁nuevo	-9.47242
بر	-9.47348
▁plusieurs	-9.47423
aux	-9.47484
▁punto	-9.4752
▁pregunta	-9.47547
▁ella	-9.47549
طة	-9.47926
▁trouver	-9.48007
▁esos	-9.48126
▁NEW	-9.48152
▁Parce	-9.4817
▁sujet	-9.48203
▁cualquier	-9.48243
▁آخر	-9.48321
▁esas	-9.48626
اكل	-9.48636
▁WHY	-9.48652
▁otras	-9.48665
نو	-9.4869
مت	-9.48787
▁mieux	-9.48907
اج	-9.48979
▁veux	-9.49046
ban	-9.49069
espère	-9.4918
نة	-9.49181
▁gr	-9.49323
▁عليك	-9.4963
▁علشان	-9.49759
▁reste	-9.49824
abord	-9.50062
ida	-9.501
zo	-9.5021
▁DAY	-9.5023
حل	-9.50325
شي	-9.50613
فضل	-9.50653
cul	-9.50778
▁puedo	-9.50791
▁i	-9.5087
CH	-9.50896
حت	-9.5091
tor	-9.50925
▁CO	-9.50957
▁suite	-9.50993
▁estás	-9.51081
▁دول	-9.51135
ju	-9.51247
▁الو	-9.51579
▁années	-9.51585
▁وأنا	-9.51652
▁GOT	-9.51666
▁وانا	-9.51767
ITY	-9.5181
ras	-9.51845
▁طب	-9.51854
▁عندما	-9.5192
تابع	-9.51922
▁alguna	-9.52029
ION	-9.52131
▁GOOD	-9.52156
mis	-9.52204
AD	-9.52212
▁صار	-9.52217
▁saber	-9.52308
شارك	-9.52426
▁LOT	-9.52477
زي	-9.52556
▁TAKE	-9.52622
▁البيت	-9.52693
با	-9.52803
▁pré	-9.52869
دخل	-9.52909
▁بل	-9.53241
ement	-9.53274
ic	-9.53298
PA	-9.5331
▁LOOK	-9.53354
▁primer	-9.5337
▁fa	-9.53372
▁والأ	-9.53386
▁TWO	-9.53415
▁rep	-9.53419
▁ليس	-9.53438
▁súper	-9.5357
▁días	-9.5359
ag	-9.53627
يع	-9.53689
جب	-9.53736
▁donne	-9.5387
mb	-9.539
ente	-9.53905
fer	-9.53921
▁إلا	-9.53949
ins	-9.54128
man	-9.54142
▁sub	-9.54159
▁problema	-9.54224
وك	-9.54313
▁الش	-9.54387
int	-9.54425
ère	-9.54428
عا	-9.54508
▁ديال	-9.54539
▁العربية	-9.54721
▁chi	-9.54748
▁وكان	-9.54799
▁dejar	-9.54833
▁realidad	-9.54855
um	-9.55185
▁jours	-9.55249
ú	-9.55272
▁مشكلة	-9.55311
▁solamente	-9.5533
rse	-9.55363
بقى	-9.55366
▁لت	-9.55404
▁Qué	-9.55495
▁imp	-9.55604
▁مهم	-9.55692
imos	-9.55733
▁لنا	-9.55836
حة	-9.55892
ABLE	-9.55976
▁acá	-9.56019
GE	-9.56031
va	-9.56094
▁خلاص	-9.56108
▁grandes	-9.56123
▁انك	-9.56234
▁EVERY	-9.56277
▁familia	-9.56413
▁DID	-9.56424
▁dinero	-9.56428
عرض	-9.5652
▁LET	-9.56534
نت	-9.56564
fi	-9.56898
▁THING	-9.56986
▁problème	-9.57036
aient	-9.57086
▁met	-9.5718
▁passé	-9.5734
▁voit	-9.57403
▁DE	-9.57434
▁début	-9.57437
▁سا	-9.57458
▁justement	-9.57491
ale	-9.57563
جد	-9.57608
rá	-9.57608
▁truc	-9.57696
مة	-9.57767
▁llegar	-9.57773
▁دور	-9.57947
VI	-9.58002
▁تم	-9.58376
▁voulez	-9.58478
يو	-9.58745
▁sous	-9.58796
ces	-9.58896
اه	-9.59008
gar	-9.59034
TER	-9.59041
rio	-9.59098
▁وبي	-9.59219
aba	-9.59247
fe	-9.59258
▁Mi	-9.59293
▁jeu	-9.5949
نس	-9.59575
duc	-9.59673
▁fond	-9.59871
نية	-9.60013
CK	-9.60087
عة	-9.60208
ؤ	-9.60259
▁possible	-9.60292
اك	-9.60429
▁أحد	-9.60469
▁crois	-9.60477
ance	-9.60515
▁sido	-9.6062
▁وانت	-9.60646
يز	-9.60687
▁Porque	-9.60776
▁finalement	-9.60845
▁ثم	-9.60887
▁vers	-9.60902
▁mucha	-9.60921
حضر	-9.60957
appelle	-9.61106
طر	-9.61178
▁número	-9.61265
histoire	-9.61274
▁CHANGE	-9.61278
▁نقول	-9.61404
▁بتاع	-9.61516
ive	-9.61548
ito	-9.61567
▁الان	-9.61727
gan	-9.61751
▁علم	-9.61812
▁جديدة	-9.61992
qué	-9.62002
der	-9.62071
فا	-9.62141
ide	-9.62153
وع	-9.62156
قدر	-9.62273
je	-9.62312
▁fi	-9.62401
▁diferentes	-9.62408
▁حلو	-9.62414
TU	-9.62519
تو	-9.62674
▁sería	-9.62938
▁إحنا	-9.63034
▁bas	-9.63087
▁كلام	-9.63092
gé	-9.63274
EM	-9.6331
▁Mar	-9.63315
ger	-9.63317
ATE	-9.63348
MI	-9.63359
gue	-9.63436
رس	-9.63442
فة	-9.63555
جز	-9.63655
▁encontrar	-9.63662
tos	-9.63665
EST	-9.63714
▁amigos	-9.63762
▁sistema	-9.63841
غ	-9.63881
LO	-9.64018
ex	-9.64093
▁ve	-9.64145
▁enfants	-9.64154
بيع	-9.6417
▁به	-9.64189
▁misma	-9.64206
سك	-9.64222
MENT	-9.64351
تهم	-9.64354
RY	-9.64398
▁تقدر	-9.64427
▁trans	-9.6446
▁تقريبا	-9.6449
▁vidéos	-9.64495
▁seguir	-9.64653
ton	-9.64673
ab	-9.64731
▁nouvelle	-9.64731
▁كي	-9.64746
له	-9.64984
جمع	-9.65107
اس	-9.65146
▁información	-9.65197
gen	-9.65223
وات	-9.65262
▁الشخص	-9.6533
▁UN	-9.65341
▁بعمل	-9.65349
ales	-9.65406
▁idea	-9.65489
ظ	-9.65518
▁funciona	-9.65523
▁DIFFERENT	-9.65551
▁rec	-9.65654
▁France	-9.65668
▁واللي	-9.65672
ros	-9.65673
عب	-9.65734
▁LITTLE	-9.65778
urs	-9.6579
▁Con	-9.65839
mer	-9.65863
▁سأ	-9.65881
▁الكتاب	-9.65906
طا	-9.65955
▁doit	-9.65986
▁الثاني	-9.66076
رو	-9.66099
▁deuxième	-9.66126
▁puisque	-9.66217
TS	-9.6626
ho	-9.66315
▁jusqu	-9.66351
▁forme	-9.6657
▁algunos	-9.66699
tura	-9.66882
▁lado	-9.66909
▁gracias	-9.66967
▁retrouve	-9.67077
▁والت	-9.67141
▁vois	-9.67151
▁Voilà	-9.67175
▁لله	-9.67251
▁HELP	-9.67343
فتح	-9.67348
HO	-9.67412
▁u	-9.67425
لعب	-9.67491
▁viene	-9.67492
▁incluso	-9.67504
▁pris	-9.67509
▁KIND	-9.67525
فق	-9.6753
▁contra	-9.67663
رم	-9.67705
اق	-9.67768
ure	-9.67847
▁sent	-9.68006
حد	-9.6814
▁معنا	-9.68145
يين	-9.68177
▁تانية	-9.68205
▁lire	-9.68291
art	-9.68367
▁مهمة	-9.68382
ونا	-9.68402
▁savez	-9.68425
▁pays	-9.68492
▁siguiente	-9.68498
▁حاجات	-9.68585
▁claro	-9.68622
CE	-9.68636
▁comprendre	-9.68647
▁so	-9.68743
▁nunca	-9.68779
▁بكل	-9.68833
رد	-9.68875
ساعد	-9.6891
▁PART	-9.69015
▁الص	-9.69113
▁TELL	-9.6924
▁agua	-9.69263
▁هذي	-9.69273
زا	-9.69312
▁Elle	-9.69316
▁film	-9.69364
ché	-9.69424
مي	-9.69478
تا	-9.69517
▁país	-9.69754
ترك	-9.69811
فهم	-9.69888
ux	-9.70003
▁Que	-9.70063
▁proceso	-9.70076
▁النهاردة	-9.70125
▁cours	-9.70141
▁الحلقة	-9.70296
شوف	-9.70341
▁كتاب	-9.70373
▁haber	-9.70489
▁أس	-9.70504
▁train	-9.70505
▁vemos	-9.70638
▁اسمه	-9.70648
▁كذا	-9.70832
▁اله	-9.70858
▁أنك	-9.70867
جن	-9.7088
▁COME	-9.7094
▁رب	-9.70973
▁algún	-9.70982
▁euros	-9.71038
ler	-9.71159
▁AROUND	-9.7139
▁toi	-9.71455
ANT	-9.71466
▁Re	-9.71551
ió	-9.71735
psvideoeswildQ	-9.71774
▁SAME	-9.71824
▁عادي	-9.71827
▁حب	-9.71881
▁عام	-9.71943
om	-9.71961
▁venir	-9.72119
لب	-9.72133
▁ensuite	-9.72211
▁estado	-9.72287
▁Te	-9.72301
sse	-9.72325
CA	-9.72329
▁كنا	-9.72336
رت	-9.72343
▁lleva	-9.72352
▁جاي	-9.72401
▁اشتركوا	-9.72401
دار	-9.72456
ées	-9.72491
ntes	-9.72495
era	-9.72542
OL	-9.72574
▁HUMAN	-9.72601
▁quiere	-9.72631
▁وده	-9.72641
▁lu	-9.72645
سأل	-9.72691
▁Moi	-9.73011
▁وح	-9.73038
وة	-9.73069
psvideoeswildw	-9.73199
▁notamment	-9.73236
▁go	-9.73243
صدق	-9.73311
ario	-9.73344
هر	-9.73455
fr	-9.73579
▁medio	-9.73593
aire	-9.7364
DI	-9.7371
▁نفسه	-9.73755
از	-9.73789
بة	-9.73795
▁THROUGH	-9.73899
▁vient	-9.73915
ran	-9.73929
tte	-9.73942
▁aunque	-9.73974
▁OWN	-9.74065
▁ceux	-9.74097
▁buena	-9.74114
▁cierto	-9.74128
▁pasar	-9.74169
▁projet	-9.74216
▁alguien	-9.74245
▁haya	-9.74267
ano	-9.74267
شا	-9.74405
ismo	-9.74461
▁لكي	-9.74476
▁وان	-9.7449
▁بص	-9.74493
▁أكيد	-9.74522
rte	-9.74564
ados	-9.7474
▁nuestros	-9.74842
HA	-9.749
▁normal	-9.74914
▁série	-9.74956
▁public	-9.74962
قص	-9.75057
رب	-9.75126
▁mode	-9.75208
حسن	-9.75227
▁وعلى	-9.75254
▁سواء	-9.75263
▁intéressant	-9.75271
isme	-9.7539
خرج	-9.75406
▁بحب	-9.75499
▁نفسي	-9.75533
fa	-9.75597
بار	-9.75629
دير	-9.75685
▁تشوف	-9.75735
IA	-9.75785
مس	-9.7582
mar	-9.75903
قة	-9.7593
table	-9.75931
▁عنه	-9.75934
بع	-9.75938
port	-9.75977
lle	-9.76225
▁commencer	-9.76315
ig	-9.76338
TY	-9.76351
ble	-9.76377
▁ok	-9.76673
▁través	-9.76675
▁tus	-9.76755
▁existe	-9.76788
▁بر	-9.768
▁الإنسان	-9.76802
▁font	-9.76863
AGE	-9.76893
ieron	-9.76974
tri	-9.76988
▁aura	-9.77011
ذا	-9.77051
عي	-9.77089
▁fácil	-9.77107
مية	-9.77207
▁ANY	-9.77265
tif	-9.7735
psvideoeswildJ	-9.77365
▁sait	-9.7738
TI	-9.77429
اط	-9.77481
tant	-9.77496
psvideoeswildN	-9.77501
ot	-9.77513
ضرب	-9.77582
▁commence	-9.7762
eux	-9.77777
▁اه	-9.77778
علم	-9.77816
▁DIDN	-9.77884
حب	-9.77924
▁In	-9.77984
دل	-9.78057
ادي	-9.78108
BI	-9.78251
▁USE	-9.78302
▁maison	-9.78362
▁عملت	-9.78384
سمع	-9.78402
psvideoeswildY	-9.78418
عيد	-9.785
ni	-9.78506
▁pratique	-9.78569
eur	-9.78601
قعد	-9.78608
▁experiencia	-9.78646
صح	-9.78665
▁الشي	-9.78708
▁elles	-9.78749
hésitez	-9.78769
▁bi	-9.78916
▁valor	-9.78932
▁ab	-9.79134
dia	-9.79161
▁ليش	-9.7918
psvideoeswildb	-9.79196
▁demande	-9.79212
▁hablando	-9.79242
▁Esto	-9.7933
▁SCHOOL	-9.79373
▁FIND	-9.79374
▁نعم	-9.7943
▁مين	-9.7946
▁جا	-9.79523
▁nivel	-9.7953
ظهر	-9.79667
psvideoeswildO	-9.79689
▁livres	-9.7976
ica	-9.79854
ite	-9.79886
▁ayuda	-9.79976
خلص	-9.79986
rme	-9.79986
ده	-9.79987
لت	-9.80007
▁شوي	-9.8005
▁CON	-9.80086
ya	-9.80294
▁كلمة	-9.80294
▁quel	-9.80361
▁cela	-9.80389
▁خل	-9.804
▁يعرف	-9.80452
▁داخل	-9.80487
psvideoeswildh	-9.8054
▁dernière	-9.80711
▁ومش	-9.80797
ضع	-9.808
NA	-9.80846
▁tellement	-9.80868
▁نوع	-9.80874
▁favor	-9.80931
AC	-9.80954
cr	-9.80994
su	-9.80998
كتب	-9.81035
▁peuvent	-9.81134
▁vi	-9.81157
▁الغ	-9.81266
psvideoeswildF	-9.81387
▁TODAY	-9.814
▁pasado	-9.81402
▁Ro	-9.81524
▁وبت	-9.81525
iva	-9.81562
cción	-9.81569
ادة	-9.81579
▁significa	-9.81613
iser	-9.81644
▁français	-9.81661
▁DOWN	-9.81704
▁encanta	-9.81777
عجب	-9.81848
fu	-9.81896
حم	-9.81902
▁وع	-9.81906
ina	-9.8193
▁questions	-9.81973
▁مر	-9.82035
▁AFTER	-9.82067
قت	-9.8217
ana	-9.82193
رج	-9.82383
année	-9.82383
elles	-9.82457
▁DOING	-9.82491
مثل	-9.82532
▁vol	-9.82589
من	-9.82653
لام	-9.82717
argent	-9.8273
par	-9.82786
▁الشيء	-9.828
▁قاعد	-9.82824
▁visto	-9.82827
▁شغل	-9.82837
▁طريق	-9.82849
▁aprender	-9.82902
▁كويس	-9.82911
▁pol	-9.82914
▁المن	-9.82944
▁utilizar	-9.82987
▁quieres	-9.83043
ris	-9.83061
CU	-9.83079
سهل	-9.83132
▁نشوف	-9.8319
▁أبو	-9.83261
طار	-9.83315
heure	-9.83414
▁المت	-9.83415
قر	-9.83453
▁لحد	-9.83466
▁شفت	-9.8351
▁أصلا	-9.83535
▁فترة	-9.83571
nc	-9.83679
▁prend	-9.83722
كت	-9.83734
▁hora	-9.83784
TA	-9.83941
psvideoeswildV	-9.84027
ph	-9.84145
▁الحاجات	-9.84176
▁Dans	-9.8418
▁prix	-9.84181
▁segundo	-9.84204
▁avons	-9.84207
LESS	-9.8429
HE	-9.84315
AG	-9.84367
▁quelqu	-9.84599
ise	-9.84644
psvideoeswildq	-9.84644
ud	-9.84786
▁espacio	-9.84834
ng	-9.84854
قوم	-9.8486
▁ST	-9.84873
لات	-9.84909
طلع	-9.84915
▁Tu	-9.84917
▁trabajar	-9.84918
ينا	-9.84919
▁انو	-9.85016
▁interesante	-9.8503
cia	-9.85104
accord	-9.85114
▁نفسك	-9.85148
▁شهر	-9.85178
▁petits	-9.85191
▁decía	-9.85358
▁sou	-9.85371
psvideoeswildZ	-9.85466
▁TALK	-9.85493
▁travailler	-9.8557
رات	-9.85585
ste	-9.856
▁certains	-9.85613
▁عندهم	-9.85699
tique	-9.85702
وج	-9.85709
AM	-9.8571
▁énormément	-9.85802
ON	-9.85837
▁tête	-9.85938
▁fil	-9.85983
ذهب	-9.86067
▁mira	-9.86167
▁sentir	-9.86182
▁libros	-9.86188
▁hacia	-9.8623
ربع	-9.8624
▁Di	-9.86356
▁simplemente	-9.86365
عود	-9.86383
rnos	-9.86597
▁قدام	-9.86607
▁YEAR	-9.86619
▁تبقى	-9.86628
qu	-9.86632
ria	-9.86657
▁المهم	-9.86672
▁ven	-9.86673
▁arrive	-9.86721
▁faites	-9.86744
▁PRO	-9.8676
▁comprar	-9.86825
دين	-9.86929
IST	-9.86965
بو	-9.86968
▁semana	-9.86972
ec	-9.86983
▁tendance	-9.87004
IM	-9.8708
نج	-9.87117
قسم	-9.87284
val	-9.87305
▁empresa	-9.87326
▁leurs	-9.87384
▁يعمل	-9.87538
▁dije	-9.87548
مل	-9.87551
▁GREAT	-9.87681
شرح	-9.87773
دور	-9.87815
▁produits	-9.87816
▁وبعد	-9.87816
سا	-9.87841
▁Para	-9.87868
psvideoeswildx	-9.87869
▁pourrait	-9.87907
▁equipo	-9.87964
pu	-9.87981
▁معينة	-9.87991
▁ازاي	-9.88022
entreprise	-9.88087
psvideoeswildB	-9.88137
▁société	-9.88163
وث	-9.88168
▁لسه	-9.88239
▁donné	-9.88258
▁NEVER	-9.88287
▁الشعر	-9.88293
▁بهذا	-9.88314
قا	-9.88508
AS	-9.88607
غير	-9.88678
▁Al	-9.88685
id	-9.88719
avez	-9.88729
▁بأن	-9.88768
▁ربنا	-9.88803
vé	-9.88809
psvideoeswildT	-9.88903
زل	-9.88912
psvideoeswildL	-9.88995
▁sac	-9.89089
▁debe	-9.89119
▁mayor	-9.89213
دعم	-9.89238
ico	-9.89271
▁sorte	-9.89308
توقع	-9.89325
▁SHOULD	-9.89394
▁سؤال	-9.89394
▁اكتر	-9.89405
▁conna	-9.89449
psvideoeswildA	-9.89455
▁Bon	-9.89457
RU	-9.89502
▁droit	-9.89516
حن	-9.89528
OM	-9.89533
▁الحياة	-9.89597
▁auto	-9.89669
▁voyez	-9.89675
▁حلوة	-9.89765
▁man	-9.89806
áis	-9.8989
mes	-9.89899
▁حي	-9.89905
▁parfois	-9.89914
تحدث	-9.89939
▁créer	-9.90032
▁THOUGHT	-9.9005
▁ref	-9.90076
ru	-9.90087
▁absolument	-9.90146
▁ensemble	-9.90156
▁semaine	-9.90178
▁pensar	-9.90221
▁quería	-9.90233
adore	-9.90288
كال	-9.90401
▁produit	-9.90443
▁GIVE	-9.90463
cen	-9.90475
زر	-9.90573
▁FEEL	-9.90583
▁Pues	-9.90619
خبر	-9.90696
▁فأ	-9.90712
سر	-9.90721
▁type	-9.9073
tal	-9.90759
▁app	-9.90779
ug	-9.90784
UL	-9.91042
▁tomar	-9.91124
▁بيها	-9.91174
ista	-9.9122
▁programa	-9.91254
yo	-9.913
psvideoeswildM	-9.91449
▁corps	-9.915
▁hacen	-9.91528
TED	-9.91533
▁أهم	-9.91627
▁seul	-9.91644
▁الأم	-9.91684
▁أنها	-9.91718
bre	-9.91734
انة	-9.91806
ible	-9.91973
تخيل	-9.92076
▁lien	-9.92076
ند	-9.92137
قابل	-9.92143
psvideoeswildg	-9.92213
وصل	-9.92215
gre	-9.92223
▁معاك	-9.9233
جاب	-9.92333
▁وإ	-9.9241
فعل	-9.92538
chi	-9.92578
illa	-9.92579
▁مح	-9.9259
▁خالص	-9.92645
▁montrer	-9.92654
تغير	-9.92705
▁plu	-9.9277
▁SHOW	-9.92822
▁sociales	-9.9284
▁tant	-9.92876
psvideoeswildm	-9.92926
▁propre	-9.93005
▁الأس	-9.93012
▁معايا	-9.93059
rés	-9.93087
PE	-9.93175
▁حال	-9.9318
IS	-9.93197
▁posible	-9.9327
دى	-9.93368
▁بيكون	-9.93373
▁السي	-9.93382
اخد	-9.93403
▁système	-9.93419
▁formation	-9.9348
كس	-9.93517
▁hyper	-9.9354
utilise	-9.93542
حافظ	-9.93571
▁algunas	-9.93573
▁près	-9.9378
يرة	-9.9378
▁Po	-9.939
aller	-9.94009
VA	-9.94043
▁ساعة	-9.94094
▁dicho	-9.94264
▁prochaine	-9.94268
قام	-9.94302
SU	-9.94343
▁بالك	-9.94346
▁نعمل	-9.94422
▁عنها	-9.94485
مين	-9.94556
▁ماذا	-9.94571
TIC	-9.94587
ائي	-9.94704
▁famille	-9.94717
information	-9.94752
▁جو	-9.94799
▁صحيح	-9.94801
▁الل	-9.94854
école	-9.94879
UM	-9.94881
▁بدون	-9.94896
▁durante	-9.94925
▁todavía	-9.9493
بين	-9.94991
▁leer	-9.95133
يها	-9.9514
▁ورحمة	-9.95207
▁llevar	-9.95367
des	-9.95393
▁نص	-9.95424
▁cuál	-9.955
psvideoeswildz	-9.95533
▁marca	-9.95554
عد	-9.95567
▁Estce	-9.95571
OS	-9.9559
▁histoire	-9.95666
غني	-9.95703
كبر	-9.95729
▁الاست	-9.95854
rie	-9.95918
▁غ	-9.95946
▁nom	-9.96019
ay	-9.9607
▁serait	-9.96077
▁casi	-9.96093
▁cambio	-9.96151
ncia	-9.96154
men	-9.96226
▁nouveau	-9.96232
▁ciudad	-9.96234
▁ابن	-9.96265
▁ثلاثة	-9.96268
صير	-9.96284
▁أخرى	-9.96311
ائم	-9.9635
▁iba	-9.96363
▁sentido	-9.96381
psvideoeswildH	-9.96404
IR	-9.96455
vers	-9.96461
▁essayer	-9.96463
sta	-9.96477
خلي	-9.96494
▁اسم	-9.96513
▁اسمها	-9.96565
▁START	-9.9659
INE	-9.96612
tions	-9.96778
▁diferencia	-9.96835
▁CAR	-9.96837
▁cambiar	-9.96844
▁PLACE	-9.96966
▁roman	-9.97018
▁والا	-9.97024
▁retrouver	-9.97029
كمل	-9.97115
▁شر	-9.9713
▁obviamente	-9.97177
▁demás	-9.97177
▁جد	-9.97185
mor	-9.97264
vent	-9.97307
ولة	-9.97344
▁شوف	-9.97385
▁IMPORTANT	-9.97426
▁شكرا	-9.97471
pos	-9.9757
▁producto	-9.9761
ob	-9.97618
▁وين	-9.9764
▁LOVE	-9.97732
idée	-9.97783
psvideoeswildR	-9.97799
▁social	-9.97966
▁MIGHT	-9.98015
▁fuera	-9.98063
▁recherche	-9.98083
لبس	-9.98084
وقف	-9.98089
▁حلقة	-9.98154
حكم	-9.98167
▁situation	-9.98178
▁buen	-9.98202
MA	-9.98292
▁col	-9.98329
تل	-9.98336
homme	-9.98423
mas	-9.98556
خت	-9.98614
▁vite	-9.98633
▁الأشياء	-9.98642
دو	-9.98671
▁cuerpo	-9.98682
▁complètement	-9.98688
وح	-9.98708
▁autour	-9.98726
▁entender	-9.98792
izar	-9.9886
▁أما	-9.98883
▁وقال	-9.98943
▁llega	-9.98968
▁هاد	-9.98995
▁Pa	-9.9903
ستخدم	-9.99039
▁AM	-9.9915
▁نعرف	-9.99197
نك	-9.9922
▁عليهم	-9.9929
ber	-9.99364
époque	-9.99411
▁عمر	-9.99426
▁mil	-9.99431
psvideoeswildX	-9.99433
▁fort	-9.99464
▁parti	-9.99465
▁tecnología	-9.99539
▁لكل	-9.99571
IES	-9.99593
▁بد	-9.99603
▁Au	-9.99642
▁ولو	-9.99687
SA	-9.99743
EE	-9.99746
▁لماذا	-9.99764
importe	-9.99795
خص	-9.99895
▁ومع	-9.99899
▁خاصة	-9.99901
مال	-9.99944
SH	-9.99989
ier	-10.0012
كل	-10.0017
▁trata	-10.0019
▁Este	-10.0021
يلة	-10.0022
▁فوق	-10.0024
▁somos	-10.0029
▁شكل	-10.0031
psvideoeswildv	-10.0034
▁peau	-10.0037
ha	-10.0046
▁crear	-10.0048
▁viendo	-10.0055
▁BETTER	-10.0056
ly	-10.0059
لع	-10.006
الة	-10.006
رش	-10.0065
▁فن	-10.0065
cas	-10.0066
▁queda	-10.0068
ائل	-10.0068
▁منهم	-10.0073
▁STARTED	-10.0075
▁mu	-10.0076
illo	-10.0083
▁Esta	-10.0085
▁Ahora	-10.0102
▁WOMEN	-10.0105
سير	-10.0111
▁rend	-10.0112
ple	-10.0119
iez	-10.0124
équipe	-10.0124
شتغل	-10.0127
سلم	-10.0132
يجي	-10.0134
زوج	-10.0136
▁بنفس	-10.0139
▁البر	-10.0145
can	-10.0146
قتل	-10.0147
▁معي	-10.0163
psvideoeswildy	-10.0164
▁BEFORE	-10.0166
▁différents	-10.0168
▁amor	-10.0171
▁cap	-10.0173
▁قدر	-10.0173
NESS	-10.0176
▁الدنيا	-10.018
▁travers	-10.0189
ient	-10.0191
▁regarder	-10.0191
RS	-10.0194
▁عالم	-10.0195
▁الحقيقة	-10.0196
▁falta	-10.0199
FA	-10.0206
ايا	-10.0215
خش	-10.0216
KE	-10.0219
US	-10.0221
سلام	-10.0228
دري	-10.023
LU	-10.023
psvideoeswildl	-10.0235
intérieur	-10.0235
به	-10.0236
▁السؤال	-10.0237
gas	-10.0237
▁energía	-10.0242
ás	-10.0244
▁STORY	-10.0248
▁PUT	-10.0249
▁permettre	-10.0249
▁année	-10.0249
▁fe	-10.0254
قي	-10.026
▁plaisir	-10.0265
▁Sa	-10.0265
▁ayudar	-10.0268
▁هما	-10.027
▁BRAIN	-10.0275
▁porte	-10.0277
▁difícil	-10.0278
cher	-10.0284
جو	-10.029
ero	-10.0291
روس	-10.0291
▁Nous	-10.0301
قطع	-10.0302
يني	-10.0306
lar	-10.0308
▁أفضل	-10.0309
psvideoeswildf	-10.031
▁tour	-10.0313
صف	-10.0319
dé	-10.0324
▁حل	-10.0325
▁problemas	-10.0326
▁salir	-10.0327
action	-10.0327
▁like	-10.0329
lla	-10.0331
▁grupo	-10.0334
رك	-10.0336
vert	-10.0337
ركز	-10.0339
▁mujeres	-10.0352
▁طريقة	-10.0358
▁principio	-10.0367
nce	-10.0371
bl	-10.0371
جم	-10.0372
▁مست	-10.0374
▁كامل	-10.0388
▁الكثير	-10.0397
▁femmes	-10.0407
▁وس	-10.041
▁Co	-10.0418
▁dernier	-10.0421
▁mercado	-10.0424
▁color	-10.0424
▁بنت	-10.0431
▁السنة	-10.0431
▁عشر	-10.0434
DA	-10.0435
رأي	-10.0436
▁inc	-10.0438
iones	-10.044
lan	-10.0441
▁END	-10.0443
▁tard	-10.0447
▁هون	-10.045
▁يوجد	-10.0453
GU	-10.0453
ty	-10.0456
uc	-10.0466
▁general	-10.0471
▁site	-10.0472
▁nuestras	-10.0474
OP	-10.0479
psvideoeswildj	-10.0484
▁long	-10.0485
عطي	-10.0487
psvideoeswildD	-10.049
▁fonction	-10.049
psvideoeswildC	-10.0496
▁podría	-10.0497
▁وإن	-10.0502
بط	-10.0503
شاهد	-10.0516
▁وبركاته	-10.0521
▁عندها	-10.0522
rez	-10.0529
▁ألف	-10.0532
اعة	-10.0537
▁usted	-10.0538
ib	-10.0539
▁Los	-10.0539
ui	-10.0542
BA	-10.0543
tó	-10.0544
cre	-10.0548
▁Ha	-10.0549
▁différentes	-10.0554
▁journée	-10.0559
يدي	-10.0568
▁negocio	-10.0579
شت	-10.058
▁EX	-10.0586
NI	-10.0587
▁بطريقة	-10.0589
▁bar	-10.0589
▁HIM	-10.0592
▁لانه	-10.0593
bra	-10.0597
▁queremos	-10.0605
▁toma	-10.0606
▁femme	-10.0606
rlo	-10.0611
én	-10.0618
AY	-10.0619
خي	-10.0622
شر	-10.0623
تكلم	-10.0625
عادة	-10.064
euse	-10.0643
BE	-10.0648
▁loin	-10.0659
tin	-10.0667
ANCE	-10.0673
▁paso	-10.0673
TING	-10.068
▁vue	-10.068
▁صراحة	-10.0681
▁petites	-10.0682
▁ben	-10.069
tivo	-10.07
▁contar	-10.0702
uel	-10.071
ME	-10.0712
▁vivre	-10.0712
▁الط	-10.0715
بن	-10.0719
▁mot	-10.0734
▁هيدا	-10.074
▁MADE	-10.0741
▁حصل	-10.0744
TO	-10.0744
▁especial	-10.0747
▁تق	-10.0748
▁soi	-10.0756
▁الثانية	-10.0757
▁parfum	-10.0759
▁effet	-10.0764
▁Li	-10.0764
▁DIS	-10.0777
▁Quand	-10.0777
▁خلي	-10.0779
▁وبالتالي	-10.0784
▁politique	-10.0784
ille	-10.0791
لح	-10.0791
طول	-10.0791
▁بكم	-10.0792
▁réalité	-10.0795
cos	-10.0796
▁بالت	-10.0796
cep	-10.0798
ut	-10.0805
صنع	-10.0805
▁FACT	-10.081
▁perfume	-10.0815
▁CAME	-10.0816
▁genera	-10.0819
▁top	-10.0823
▁اقول	-10.0825
▁بإ	-10.0829
PER	-10.0832
tan	-10.0846
▁مجموعة	-10.0848
iente	-10.0849
EA	-10.0849
▁شعر	-10.0862
entes	-10.0864
غر	-10.0865
DE	-10.0872
ence	-10.0872
▁سو	-10.0873
اث	-10.0873
▁trouvé	-10.0875
▁الاول	-10.0879
عم	-10.0882
▁علاقة	-10.0883
DY	-10.0885
▁أحب	-10.0894
عمال	-10.0896
▁الدولة	-10.0897
▁acuerdo	-10.0899
▁Ya	-10.0906
مشي	-10.0907
▁salud	-10.0909
سة	-10.0914
▁allá	-10.0917
▁فأنا	-10.0923
gl	-10.0928
▁pr	-10.0931
▁digamos	-10.0933
حكي	-10.0933
▁الذين	-10.0939
▁Tout	-10.0939
▁عدد	-10.094
▁marque	-10.094
▁الحمد	-10.0948
▁HOME	-10.0948
ser	-10.0951
att	-10.0954
▁المكان	-10.0955
▁can	-10.0955
▁أكبر	-10.0957
▁bah	-10.096
▁Hay	-10.0961
▁THREE	-10.0966
ense	-10.0971
▁serie	-10.0972
▁of	-10.0974
▁conocer	-10.098
▁voulais	-10.098
▁libre	-10.0982
اص	-10.0993
ضر	-10.0994
▁أعمل	-10.0996
لاقي	-10.0996
▁acaba	-10.1004
▁بالأ	-10.1006
رق	-10.1009
éis	-10.1009
isation	-10.1013
▁dónde	-10.1015
▁vídeos	-10.1018
▁eux	-10.102
▁choix	-10.1033
ry	-10.1038
▁بسبب	-10.1041
▁ثلاث	-10.1049
زال	-10.1054
GA	-10.1054
▁cuatro	-10.1055
up	-10.1055
طالب	-10.1055
▁main	-10.1061
entre	-10.1065
vie	-10.1067
زم	-10.1067
جا	-10.1072
▁étaient	-10.1073
▁personal	-10.1077
▁peur	-10.1078
▁الكل	-10.1078
tica	-10.1081
▁الجن	-10.1082
iz	-10.1084
▁قصة	-10.1085
▁beau	-10.1085
▁cher	-10.1089
▁voyage	-10.109
▁فت	-10.1092
all	-10.1094
▁TOO	-10.1097
▁Bo	-10.1097
▁الأولى	-10.1106
▁عبد	-10.1108
▁face	-10.1109
▁internet	-10.1109
طبق	-10.1111
▁celui	-10.1119
▁So	-10.1119
IP	-10.1126
جة	-10.1127
شرب	-10.1129
حفظ	-10.1131
▁شايف	-10.1136
UT	-10.1137
▁pueda	-10.1139
عل	-10.1141
▁CALLED	-10.1142
اتي	-10.1142
▁niños	-10.1146
▁هلأ	-10.1146
▁déco	-10.1146
dores	-10.1147
▁YouTube	-10.1151
ورد	-10.1153
impression	-10.1155
hy	-10.116
▁cou	-10.1164
▁رقم	-10.1165
▁facile	-10.1165
ivo	-10.1167
طلق	-10.1168
▁المش	-10.1169
فو	-10.1169
JU	-10.117
▁bout	-10.1171
▁أد	-10.1176
شن	-10.1178
▁PERSON	-10.118
▁podía	-10.1184
▁حسب	-10.1184
▁Une	-10.1194
▁autor	-10.1199
▁مختلفة	-10.12
▁للأ	-10.1206
▁IDEA	-10.1209
▁OLD	-10.1209
▁qualité	-10.1209
br	-10.121
▁mañana	-10.1212
▁بتاعت	-10.1212
بني	-10.1214
دن	-10.1233
لق	-10.1234
▁supuesto	-10.1237
▁photo	-10.1241
teur	-10.1241
▁marché	-10.1243
▁STILL	-10.1245
▁difficile	-10.1245
▁terre	-10.1248
lement	-10.1252
وال	-10.1253
▁Du	-10.1254
SC	-10.1254
▁sólo	-10.1256
تكم	-10.1261
psvideoeswildE	-10.1261
▁red	-10.1261
▁BELIEVE	-10.1267
▁esté	-10.1272
▁وأن	-10.1273
▁دو	-10.128
▁FOUND	-10.129
▁inf	-10.1292
▁hombre	-10.1293
▁المشكلة	-10.1297
▁changer	-10.1302
▁utiliser	-10.1303
psvideoeswildo	-10.1305
▁entra	-10.1305
énergie	-10.131
▁hacerlo	-10.1311
▁بصراحة	-10.1314
ارات	-10.1316
▁مجال	-10.132
دق	-10.1321
psvideoeswildK	-10.1321
▁صوت	-10.1323
▁Ils	-10.1325
▁futuro	-10.133
بناء	-10.1334
▁SP	-10.1335
شغل	-10.1338
▁شنو	-10.1341
ches	-10.1347
psvideoeswildW	-10.1352
▁أعرف	-10.1352
▁بقول	-10.1364
▁montón	-10.1366
▁حر	-10.1368
▁eh	-10.1373
مسك	-10.1374
▁an	-10.1376
▁hacemos	-10.1385
▁وبعدين	-10.1386
▁nueva	-10.1389
▁MEAN	-10.1395
▁termina	-10.1397
دم	-10.1402
▁perd	-10.1409
▁général	-10.141
▁emp	-10.141
tent	-10.1418
قد	-10.1422
▁أريد	-10.1423
وط	-10.1424
▁تع	-10.1425
▁dicen	-10.1426
▁heures	-10.1428
mm	-10.1429
nal	-10.1432
▁juego	-10.1433
▁langue	-10.1439
▁كثيرة	-10.1449
▁لايك	-10.145
▁بيه	-10.1455
▁exp	-10.1462
▁sommes	-10.1464
pt	-10.1464
قرب	-10.1469
▁extrêmement	-10.1472
▁وبال	-10.1473
▁amis	-10.1474
▁productos	-10.1474
رفع	-10.1477
دفع	-10.1478
▁Qu	-10.1478
عت	-10.1479
▁seulement	-10.148
▁دولة	-10.1481
▁الصح	-10.1482
▁real	-10.1482
▁عايزة	-10.1483
▁PRE	-10.1485
▁obra	-10.1485
▁importantes	-10.1491
عين	-10.1496
RED	-10.1503
▁بيقول	-10.1507
▁largo	-10.1507
▁آ	-10.1507
TRI	-10.1508
▁بلا	-10.1508
▁كتب	-10.1512
▁حدا	-10.1515
▁último	-10.1516
▁miedo	-10.1519
▁saben	-10.1525
سو	-10.1528
▁وعند	-10.1534
▁buscar	-10.1544
▁espero	-10.1547
▁horas	-10.1547
تعامل	-10.1551
▁dijo	-10.1553
▁habla	-10.1556
▁mort	-10.1558
▁compris	-10.1563
▁جزء	-10.1566
▁Cuando	-10.1566
▁بيعمل	-10.1587
▁مشاكل	-10.1588
▁تماما	-10.1592
▁apprendre	-10.1598
ants	-10.1598
▁EXPERIENCE	-10.1599
miento	-10.1621
BR	-10.1622
▁COM	-10.1624
▁meilleur	-10.1633
▁compra	-10.1634
▁sociedad	-10.1637
▁الحر	-10.1646
▁dólares	-10.165
ard	-10.1651
aria	-10.1654
▁معين	-10.1654
▁انها	-10.1657
تعرف	-10.1661
جرب	-10.1663
سمي	-10.1666
▁ام	-10.1668
▁WENT	-10.1681
MO	-10.1682
صة	-10.1682
▁خط	-10.1687
▁وبين	-10.1691
ô	-10.17
▁صاحب	-10.1709
▁ماشي	-10.1713
▁MAYBE	-10.1713
▁escuela	-10.1716
▁cantidad	-10.1721
اري	-10.1721
psvideoeswildn	-10.1726
انية	-10.1731
char	-10.1732
خط	-10.1733
FI	-10.1734
▁sabes	-10.1736
fic	-10.1739
▁redes	-10.1747
▁hago	-10.1748
يدة	-10.1748
isé	-10.1749
use	-10.175
yer	-10.1751
log	-10.1751
APP	-10.1753
▁أني	-10.1755
▁OFF	-10.1755
▁mano	-10.1757
ye	-10.1762
▁وليس	-10.1762
▁fou	-10.1764
▁اللغة	-10.1766
▁commencé	-10.1774
▁الدول	-10.1777
ador	-10.1787
espace	-10.1788
cro	-10.1791
▁usar	-10.1792
PI	-10.1792
psvideoeswildP	-10.1793
▁hola	-10.1793
▁quelle	-10.1804
psvideoeswildp	-10.1804
▁mujer	-10.1806
▁lieu	-10.1807
▁CHILDREN	-10.1808
▁عامل	-10.1808
▁بو	-10.181
نب	-10.181
▁العربي	-10.181
بان	-10.1812
ضيف	-10.1815
▁longtemps	-10.1816
PL	-10.1816
▁والد	-10.184
يط	-10.1858
hor	-10.1858
رض	-10.1861
▁سوف	-10.1863
▁يطلع	-10.1863
▁حول	-10.1865
▁embargo	-10.187
▁BECOME	-10.1874
▁بداية	-10.1882
▁مد	-10.1883
▁إذن	-10.1886
▁vaya	-10.1892
ka	-10.1896
▁TOGETHER	-10.1908
▁لذلك	-10.1908
لس	-10.1909
▁eres	-10.191
NO	-10.191
▁الفيلم	-10.1917
ki	-10.1918
LD	-10.1919
▁película	-10.192
vis	-10.192
▁PROBLEM	-10.1924
▁الفكرة	-10.1925
til	-10.1928
رى	-10.1929
ابة	-10.1931
ture	-10.1937
▁يلا	-10.1938
وري	-10.1946
DU	-10.1947
ASS	-10.1957
▁partager	-10.1958
▁ABLE	-10.1962
▁Instagram	-10.1963
نظر	-10.1966
▁carrera	-10.1967
▁شباب	-10.1968
eg	-10.1969
غا	-10.1972
▁minutes	-10.1973
▁الواحد	-10.1974
▁بيبقى	-10.1975
pens	-10.1975
▁بلد	-10.1976
stru	-10.1983
psvideoeswildt	-10.1985
زين	-10.1989
▁PO	-10.1994
▁ورا	-10.2003
▁découvrir	-10.2006
▁cal	-10.2021
agit	-10.2022
وحد	-10.2026
▁raison	-10.2028
فات	-10.2029
▁Là	-10.2029
HI	-10.203
سب	-10.2052
▁NEXT	-10.2053
وفر	-10.2059
▁cámara	-10.2065
▁culture	-10.2069
▁appelle	-10.2072
air	-10.2074
▁أشياء	-10.2076
ière	-10.2077
راء	-10.2077
psvideoeswildk	-10.2079
antes	-10.208
▁seule	-10.208
▁fra	-10.2081
عاد	-10.2085
هن	-10.2085
▁يست	-10.2087
amente	-10.2087
▁sortir	-10.2088
▁MO	-10.209
apa	-10.2093
وض	-10.2095
pl	-10.2101
bel	-10.2103
▁compliqué	-10.2104
كوا	-10.211
▁برا	-10.2111
▁LIVE	-10.2113
▁LONG	-10.2114
▁acerca	-10.212
▁EACH	-10.2121
he	-10.2124
▁بتقول	-10.2127
habitude	-10.2128
net	-10.2135
iv	-10.2136
by	-10.2139
▁طلع	-10.214
▁ايش	-10.2147
▁franchement	-10.2148
▁groupe	-10.2148
▁trucs	-10.2152
▁أهل	-10.2153
▁autant	-10.2154
▁خير	-10.2158
شار	-10.2158
AB	-10.2161
اية	-10.2162
▁comentarios	-10.2167
▁meses	-10.2171
▁نقطة	-10.2176
ائية	-10.2176
imiento	-10.2185
▁ANOTHER	-10.2187
OT	-10.2188
▁travaille	-10.2189
▁fuerte	-10.2195
environnement	-10.2195
ions	-10.2198
▁POINT	-10.2207
▁hizo	-10.2207
PT	-10.2208
▁HIGH	-10.221
▁تمام	-10.2218
▁principal	-10.2218
▁DOES	-10.2219
▁فعل	-10.2227
▁situación	-10.2235
زيد	-10.224
▁marche	-10.2242
▁الشر	-10.2255
▁darle	-10.2256
▁الشعب	-10.2257
صب	-10.2259
عدة	-10.226
ضغط	-10.2261
▁nadie	-10.2263
univers	-10.227
▁الفترة	-10.228
مو	-10.2286
▁soir	-10.23
▁derrière	-10.2308
زة	-10.231
▁Après	-10.232
▁micro	-10.2322
نجح	-10.2322
▁necesita	-10.2326
été	-10.2327
▁مستوى	-10.2337
▁pose	-10.2338
▁capable	-10.234
▁الفر	-10.2348
▁بح	-10.2348
▁quién	-10.2357
▁UNDERSTAND	-10.2358
▁diferente	-10.2359
▁physique	-10.236
فرح	-10.236
▁pan	-10.2361
لاحظ	-10.2367
▁Car	-10.2368
عيش	-10.2376
▁aider	-10.2379
▁quieren	-10.2381
ATING	-10.2382
OB	-10.2383
psvideoeswildU	-10.2384
صاب	-10.2384
▁شركة	-10.2385
يج	-10.2387
▁Aujourd	-10.2393
▁Su	-10.2397
▁دخل	-10.2397
tive	-10.2403
▁ALWAYS	-10.2409
كتر	-10.2414
▁نبدأ	-10.2414
▁وفيه	-10.2416
شعر	-10.242
▁attention	-10.242
▁ningún	-10.2425
▁الطفل	-10.243
▁propia	-10.2434
خدم	-10.2436
gui	-10.2443
نين	-10.2444
▁Sin	-10.2445
▁بش	-10.2449
▁arriver	-10.2451
ستر	-10.2452
▁مي	-10.2456
▁tampoco	-10.2458
▁عبارة	-10.2458
▁noche	-10.2458
▁البلد	-10.246
▁mesure	-10.2463
▁chance	-10.2464
جلس	-10.2469
▁BO	-10.247
سكر	-10.247
▁LAST	-10.2475
ub	-10.2482
موت	-10.2486
▁palabra	-10.2487
▁BIT	-10.249
NY	-10.2491
ip	-10.2498
▁contenido	-10.2499
ورة	-10.2503
em	-10.2505
▁Vamos	-10.2505
pro	-10.2507
جه	-10.2512
adas	-10.2513
تني	-10.2523
nne	-10.2525
▁QUESTION	-10.2526
▁مفيش	-10.2533
nto	-10.2533
▁ville	-10.2541
▁certaines	-10.2543
▁روح	-10.2545
IAN	-10.2546
▁اخت	-10.255
psvideoeswildu	-10.2554
▁يقدر	-10.2555
ضي	-10.2556
حصل	-10.2562
▁مل	-10.2563
▁abajo	-10.2565
▁غلط	-10.2586
▁proyecto	-10.2588
▁خد	-10.2588
▁باش	-10.2588
▁oportunidad	-10.2589
▁cara	-10.2594
▁risque	-10.2595
cal	-10.2596
igne	-10.2598
▁MIND	-10.2598
ND	-10.2599
صدر	-10.2602
▁علينا	-10.2604
▁force	-10.2607
ضم	-10.2608
▁أبدا	-10.2608
▁WANTED	-10.2623
تعب	-10.2623
▁página	-10.2627
▁المنطقة	-10.2627
psvideoeswildi	-10.2628
▁conocimiento	-10.2631
▁عنا	-10.2633
▁poser	-10.2633
cier	-10.2634
فس	-10.2636
ذي	-10.2637
PH	-10.2637
▁تريد	-10.2638
▁fonctionne	-10.2639
▁educación	-10.2644
hé	-10.2645
▁grosse	-10.2645
▁وص	-10.2647
rico	-10.2652
avait	-10.2654
▁Eso	-10.2655
TEN	-10.2658
▁lecture	-10.2665
▁بتعمل	-10.2666
▁total	-10.267
▁رو	-10.2673
▁vive	-10.2674
قرر	-10.2675
▁propose	-10.2676
شخص	-10.2676
▁métier	-10.2676
nar	-10.2678
sh	-10.2681
▁الأرض	-10.2685
امي	-10.2687
نق	-10.2691
▁خمس	-10.2694
uv	-10.2695
حمل	-10.2696
ow	-10.2698
▁المجتمع	-10.2699
صالح	-10.27
isto	-10.2704
itos	-10.2706
▁regarde	-10.2707
ke	-10.2708
▁إزاي	-10.2711
▁MA	-10.272
isse	-10.272
psvideoeswildG	-10.2727
كرة	-10.273
HY	-10.2734
داء	-10.2736
طور	-10.2738
▁écrit	-10.2741
nement	-10.2744
▁único	-10.2744
▁BIG	-10.2753
CI	-10.2753
▁precio	-10.2766
▁شخصية	-10.2766
▁confi	-10.277
▁اعمل	-10.2771
▁parlé	-10.2772
▁جي	-10.2773
▁قادر	-10.2778
▁حالة	-10.2779
بات	-10.278
اوي	-10.2785
وار	-10.2788
▁اس	-10.2789
▁relation	-10.2791
▁تو	-10.2794
▁Cómo	-10.2795
▁empieza	-10.2797
رف	-10.2804
▁aún	-10.2804
▁comer	-10.2804
بحث	-10.2805
▁HARD	-10.2805
راس	-10.2811
▁sabemos	-10.2813
▁CALL	-10.2817
خو	-10.2818
زب	-10.2818
▁classe	-10.282
▁الرئيس	-10.2821
نقل	-10.2825
▁matière	-10.2825
جار	-10.2829
▁العام	-10.2832
▁Como	-10.2834
▁الكو	-10.2839
▁relación	-10.2843
eurs	-10.2845
▁empresas	-10.2852
▁القصة	-10.2853
▁grave	-10.2855
▁tenido	-10.2855
ارت	-10.2855
▁الدين	-10.2856
▁Una	-10.2862
ables	-10.2864
▁but	-10.2867
▁رئيس	-10.2867
▁mots	-10.287
lie	-10.2875
lier	-10.2882
▁الأمر	-10.2882
▁المع	-10.2885
▁الشغل	-10.2885
حك	-10.2886
اته	-10.2891
▁compartir	-10.2897
▁تطلع	-10.29
▁tenga	-10.2902
▁Comme	-10.2903
dura	-10.2905
▁تدخل	-10.2912
▁Ca	-10.2916
vir	-10.2921
▁نتكلم	-10.2922
ICE	-10.2924
▁FEW	-10.2925
gn	-10.2925
tado	-10.2926
▁فيلم	-10.2928
▁فلوس	-10.2929
▁san	-10.2931
aciones	-10.2938
▁dès	-10.294
état	-10.2942
قبل	-10.2943
▁calidad	-10.2943
▁belle	-10.2944
مكان	-10.2946
▁enseñar	-10.2949
▁ru	-10.295
▁web	-10.2955
زن	-10.2965
▁الحاجة	-10.2968
قلب	-10.297
OD	-10.2972
▁مك	-10.2974
روب	-10.2974
▁EXAMPLE	-10.2979
▁عملية	-10.2982
BU	-10.2984
كب	-10.2985
▁انتو	-10.2986
▁jouer	-10.2986
▁بدأت	-10.2992
▁صغير	-10.2992
nk	-10.3001
▁zona	-10.3003
▁vivir	-10.3006
▁معه	-10.3006
▁atención	-10.3014
▁وضع	-10.3016
آ	-10.3021
▁MAY	-10.3028
▁تروح	-10.3031
▁política	-10.3031
▁عد	-10.3033
▁bienvenidos	-10.3033
حين	-10.3035
عش	-10.3035
تس	-10.3036
▁منك	-10.3037
اغ	-10.304
ATED	-10.305
▁جميل	-10.3053
▁permite	-10.3061
▁pone	-10.3065
▁برنامج	-10.3065
▁divers	-10.3066
امة	-10.3066
وان	-10.3066
▁الآ	-10.3069
▁segunda	-10.307
▁خلينا	-10.307
▁SYSTEM	-10.3071
▁JOB	-10.3071
▁chacun	-10.3079
▁celle	-10.3083
xi	-10.3088
AU	-10.3094
صار	-10.3095
URE	-10.31
▁حوالي	-10.3103
▁mets	-10.3105
فور	-10.3112
هات	-10.3115
rer	-10.3116
▁البي	-10.3119
وى	-10.3123
▁وطبعا	-10.3127
شكل	-10.3127
تفرج	-10.3134
▁جر	-10.3142
▁REAL	-10.3147
▁دكتور	-10.3153
▁انتي	-10.3157
▁post	-10.3161
▁camino	-10.3167
خب	-10.3167
بق	-10.3168
▁propio	-10.317
اي	-10.317
▁MAN	-10.3171
▁laquelle	-10.3184
▁básicamente	-10.3185
FUL	-10.3186
تطور	-10.3188
رع	-10.3188
سبب	-10.3197
صبح	-10.3199
▁correspond	-10.3201
▁duda	-10.3202
▁EVER	-10.3203
حق	-10.3204
psvideoeswildI	-10.3207
osa	-10.3209
▁será	-10.321
instant	-10.3215
▁multi	-10.3216
▁respuesta	-10.3224
▁vend	-10.3224
▁صلى	-10.3224
▁السن	-10.3225
▁بما	-10.3226
▁رجل	-10.323
مه	-10.3231
▁gustado	-10.3232
ade	-10.3233
▁أحمد	-10.3233
▁laisser	-10.3239
شكر	-10.324
▁السعودية	-10.324
▁jeunes	-10.3253
▁AGAIN	-10.3253
ê	-10.3254
▁ASK	-10.3255
attend	-10.3255
▁sabe	-10.3257
▁réponse	-10.3263
anza	-10.3263
ظل	-10.3272
▁جميلة	-10.3273
قم	-10.3276
▁capacidad	-10.3281
▁santé	-10.3283
نه	-10.3287
▁العلم	-10.3296
pre	-10.3296
درجة	-10.3311
▁estilo	-10.3314
▁tome	-10.3318
▁GR	-10.3319
met	-10.332
▁cri	-10.3326
▁laisse	-10.3326
▁siendo	-10.333
image	-10.3332
psvideoeswildr	-10.3334
▁rapidement	-10.3337
▁THANK	-10.3339
teurs	-10.3341
▁LG	-10.3344
▁الجو	-10.3344
ienne	-10.3347
▁لهذا	-10.3347
▁Ensuite	-10.3348
▁blanc	-10.335
فصل	-10.335
▁pareil	-10.3351
قرار	-10.3351
ami	-10.3353
app	-10.3355
▁اليوتيوب	-10.3357
تقل	-10.3359
cio	-10.3359
▁rel	-10.3359
شبه	-10.3364
▁présent	-10.3365
افي	-10.3367
enta	-10.3368
▁sacar	-10.337
▁anti	-10.3371
طن	-10.3373
▁uso	-10.3374
▁المغرب	-10.3381
فك	-10.3386
▁يلي	-10.3387
▁chercher	-10.3388
▁Ah	-10.3396
▁مليون	-10.3397
▁eran	-10.3403
▁test	-10.3405
▁Cha	-10.3411
MB	-10.3413
oso	-10.3413
قف	-10.3417
▁Do	-10.3423
ino	-10.3426
▁وك	-10.3431
ARY	-10.3436
▁مختلف	-10.3437
▁usa	-10.3441
▁Jo	-10.3445
▁matin	-10.3445
بلش	-10.3446
iel	-10.3448
▁puisqu	-10.3451
قيم	-10.3452
▁dios	-10.346
بس	-10.3462
▁فهو	-10.3464
طف	-10.3465
▁quien	-10.3466
▁وسلم	-10.3466
حساس	-10.3467
bla	-10.347
▁إنت	-10.3472
▁directement	-10.3484
▁الحل	-10.3484
▁derecho	-10.3492
غي	-10.3493
▁فاهم	-10.3496
cor	-10.3498
▁expérience	-10.3499
▁تاريخ	-10.3501
▁choisi	-10.3509
▁comunidad	-10.351
▁lit	-10.3514
سف	-10.3518
احة	-10.3518
▁سنين	-10.3521
▁considera	-10.3524
ربي	-10.3529
OC	-10.3538
▁الشباب	-10.3538
out	-10.3553
▁deja	-10.3555
طو	-10.3563
▁busca	-10.357
▁mari	-10.3573
UE	-10.3576
▁modèle	-10.3583
▁aimé	-10.3584
▁عايزين	-10.3586
rc	-10.3586
قب	-10.3587
ora	-10.3587
▁curso	-10.3589
▁Puis	-10.3593
▁ciencia	-10.3602
▁ولم	-10.3606
▁También	-10.3606
▁bro	-10.3607
▁devenir	-10.3607
▁بك	-10.3608
▁penser	-10.3611
▁فما	-10.3612
▁الطريقة	-10.3613
▁Pourquoi	-10.3616
aliment	-10.3616
▁commun	-10.3616
▁effectivement	-10.3624
vin	-10.3638
ركة	-10.3639
uf	-10.364
▁estudiar	-10.3642
▁MOMENT	-10.3643
objectif	-10.3644
ude	-10.3648
▁EVERYTHING	-10.3648
▁قر	-10.3651
▁cuanto	-10.3652
psvideoeswildc	-10.3659
ttes	-10.366
▁Hola	-10.3661
cra	-10.3663
▁بتكون	-10.3667
▁Cette	-10.3667
▁ligne	-10.3669
▁أولا	-10.3669
nel	-10.3675
▁بعيد	-10.3676
aje	-10.3677
ينة	-10.3683
amour	-10.3687
▁وكمان	-10.3688
نسي	-10.3693
باب	-10.3696
IGHT	-10.3697
▁interesa	-10.3698
▁media	-10.3699
▁حضرتك	-10.3705
rou	-10.3706
▁haut	-10.3709
▁بعدين	-10.3716
ios	-10.3717
فرق	-10.3722
▁الحب	-10.3722
▁اخر	-10.3723
▁يجي	-10.3723
واجه	-10.3726
▁arte	-10.3727
يان	-10.3729
END	-10.3737
ائر	-10.374
كور	-10.3742
tit	-10.3748
كلم	-10.3749
bles	-10.375
iens	-10.3751
intéresse	-10.3754
▁حا	-10.3757
ثق	-10.3759
▁millones	-10.3759
OUS	-10.3759
▁volver	-10.3761
ían	-10.3762
scrib	-10.3764
▁DOESN	-10.3765
▁بشر	-10.3767
▁بالا	-10.3767
ريد	-10.3767
▁تبع	-10.377
ستعمل	-10.3775
▁هدف	-10.3776
▁الاس	-10.3776
▁fan	-10.3782
▁MYSELF	-10.3782
▁Na	-10.3786
▁يصير	-10.3787
سجل	-10.3789
▁AWAY	-10.3789
▁دولار	-10.3792
▁señor	-10.38
جاز	-10.38
▁نت	-10.3803
▁يتم	-10.3811
ESS	-10.3812
قط	-10.3813
▁SOCIAL	-10.3825
▁exactement	-10.3825
▁has	-10.3825
▁الشخصية	-10.3826
عقل	-10.3828
▁partout	-10.383
▁الكر	-10.383
▁CARE	-10.3831
▁Oui	-10.3831
rique	-10.3833
▁FOOD	-10.3839
▁concepto	-10.3846
▁صعب	-10.3849
▁اما	-10.3851
▁THINKING	-10.3853
بعد	-10.3858
tico	-10.3859
▁rêve	-10.3867
XI	-10.3867
▁Ju	-10.3869
رز	-10.3871
▁FAMILY	-10.3872
ect	-10.3873
ización	-10.3873
فيد	-10.3877
عكس	-10.3885
▁San	-10.3889
CY	-10.3892
▁rendre	-10.3894
WE	-10.3897
▁LEARN	-10.3898
aide	-10.3898
▁próximo	-10.3905
IE	-10.3905
uy	-10.3909
▁قريب	-10.3912
▁وهذه	-10.3919
mu	-10.3921
él	-10.3923
▁كلهم	-10.3924
bilité	-10.3933
cciones	-10.3933
▁crea	-10.3934
▁Sí	-10.3937
LIGHT	-10.3938
▁mejores	-10.3942
خاف	-10.3942
▁programme	-10.3948
▁devant	-10.3951
▁luz	-10.3951
FR	-10.3959
▁PLAY	-10.3961
▁Non	-10.3967
روا	-10.3969
▁lorsque	-10.397
uer	-10.3971
via	-10.3971
▁bientôt	-10.3976
▁sport	-10.3977
nas	-10.3988
eo	-10.3989
endroit	-10.399
حية	-10.3994
▁للت	-10.3996
LOW	-10.3997
طل	-10.4
▁KIDS	-10.4
كثر	-10.4
▁Eh	-10.4004
SY	-10.4007
▁mayoría	-10.4007
idos	-10.4012
▁ضد	-10.4014
▁قالت	-10.4016
حتاج	-10.4017
▁MEN	-10.4018
CL	-10.4019
▁texte	-10.4019
▁unas	-10.4025
▁COURSE	-10.4038
▁allons	-10.4043
▁مخ	-10.4043
▁nouvelles	-10.4047
▁BETWEEN	-10.4048
ضح	-10.4048
شير	-10.4049
لها	-10.4051
▁الأمور	-10.4057
▁cree	-10.4058
طب	-10.4061
▁troisième	-10.4063
▁معاه	-10.4063
▁POWER	-10.4067
افة	-10.4074
رون	-10.4078
▁puesto	-10.4085
remos	-10.4087
▁última	-10.4091
يمة	-10.4091
▁يقوم	-10.4092
LAND	-10.4094
TION	-10.41
ختار	-10.41
▁الموجودة	-10.4105
▁MONEY	-10.4105
▁entend	-10.4106
▁buenas	-10.4107
▁puedan	-10.4108
▁Gu	-10.4108
قرأ	-10.4109
حمد	-10.4111
ateur	-10.4112
نشر	-10.4113
لد	-10.4119
▁أهلا	-10.4119
▁الفن	-10.4121
▁خمسة	-10.4123
▁مج	-10.4125
▁tarde	-10.4131
ist	-10.4133
سيب	-10.4139
▁صغيرة	-10.4139
▁preguntas	-10.4141
▁Dios	-10.4143
▁الما	-10.4148
▁مدينة	-10.4154
▁modelo	-10.4161
▁pis	-10.4162
▁فيهم	-10.4168
RATE	-10.4174
lique	-10.4174
mento	-10.4176
▁domaine	-10.4178
منت	-10.4178
▁avis	-10.4179
▁SHARE	-10.4183
▁عارفة	-10.4187
▁suivre	-10.4188
▁lequel	-10.4188
عتبر	-10.4189
▁SECOND	-10.4193
mie	-10.4199
توا	-10.4199
NU	-10.4205
▁seguro	-10.4217
▁dés	-10.4217
طعم	-10.422
▁WORKING	-10.422
▁présenter	-10.4223
▁línea	-10.4227
▁معكم	-10.4228
FE	-10.4232
▁قناة	-10.4234
rán	-10.4235
▁compétences	-10.4236
▁البداية	-10.4237
AP	-10.4237
▁différence	-10.4238
▁المو	-10.424
▁USED	-10.4243
thé	-10.4246
▁TOLD	-10.4256
Ba	-10.4256
lic	-10.426
intérêt	-10.4261
▁développer	-10.4263
▁jeux	-10.4264
▁datos	-10.4264
سافر	-10.4269
▁فب	-10.427
▁universidad	-10.4271
▁أحسن	-10.4271
▁dessus	-10.4274
OH	-10.4274
▁cinco	-10.4276
ront	-10.4277
bé	-10.4278
▁عارفين	-10.4281
▁clase	-10.429
▁réussi	-10.429
▁NUMBER	-10.4291
▁To	-10.4293
▁النبي	-10.4293
KI	-10.4294
خلق	-10.4298
صد	-10.43
▁للناس	-10.4301
cl	-10.4304
mon	-10.4308
GO	-10.431
أخذ	-10.4313
يوم	-10.4314
▁كذلك	-10.4315
étape	-10.4315
pri	-10.4316
▁commentaire	-10.4318
▁madre	-10.432
شد	-10.4321
▁SOMEONE	-10.4321
▁certain	-10.4323
▁países	-10.4324
ريت	-10.4324
بير	-10.4325
▁siento	-10.4325
ركب	-10.4326
▁hacía	-10.4328
اخذ	-10.4335
▁jeune	-10.4335
▁المجال	-10.4337
▁sean	-10.4339
▁ello	-10.4339
سام	-10.4339
جوز	-10.4345
وجد	-10.4354
fQ	-10.4355
▁déb	-10.4359
▁نهاية	-10.4366
▁والع	-10.4366
▁اصلا	-10.437
ضا	-10.4375
GR	-10.4378
▁vista	-10.438
▁montre	-10.4381
▁وصلت	-10.4383
▁ENOUGH	-10.4394
▁ap	-10.4394
▁صورة	-10.4396
فن	-10.44
ende	-10.4405
▁نحنا	-10.4412
nie	-10.443
▁قلنا	-10.4437
ial	-10.4445
▁YOUNG	-10.4448
▁haga	-10.4449
esprit	-10.4449
▁تاخد	-10.4451
écrire	-10.4452
▁particulier	-10.4454
▁CREATE	-10.4455
idades	-10.4456
▁المسلسل	-10.4463
جسم	-10.4464
▁local	-10.4466
▁بدك	-10.447
▁حط	-10.4474
line	-10.4474
▁إنسان	-10.4477
▁تست	-10.4477
▁ايضا	-10.4479
▁ترى	-10.4481
VER	-10.4483
▁recomiendo	-10.4484
▁AGO	-10.4488
▁corre	-10.4493
نان	-10.4494
▁lumière	-10.4504
رين	-10.4504
بطل	-10.4505
her	-10.4507
▁quizás	-10.4508
أهل	-10.451
▁palabras	-10.4514
مون	-10.4517
nant	-10.4518
▁servir	-10.4519
▁السل	-10.4521
ستفيد	-10.4522
بتدي	-10.4522
▁cuáles	-10.4522
▁كن	-10.4522
اهل	-10.4524
▁جاء	-10.4527
CR	-10.4528
rica	-10.4528
arrive	-10.4529
▁الصورة	-10.453
▁مني	-10.453
زمة	-10.4533
▁مق	-10.4534
CO	-10.4538
▁couleurs	-10.454
زع	-10.4543
SION	-10.4547
▁أت	-10.455
▁Bien	-10.4551
ísimo	-10.4553
▁Mo	-10.4555
▁صف	-10.4563
▁ودي	-10.4565
▁معانا	-10.4565
▁TRYING	-10.4565
RM	-10.4566
▁confiance	-10.4566
▁sale	-10.4569
ak	-10.457
▁تقوم	-10.4571
وهم	-10.4572
يته	-10.4572
cc	-10.4573
▁explicar	-10.4579
▁niño	-10.4579
ette	-10.4581
ENS	-10.4582
aires	-10.4582
عتمد	-10.4583
▁pequeña	-10.4585
▁TRY	-10.4593
oh	-10.4595
▁rápido	-10.4595
▁idée	-10.4599
▁points	-10.46
دع	-10.4601
▁pres	-10.4602
▁conseguir	-10.461
▁style	-10.461
▁porter	-10.4615
▁plante	-10.4615
▁يشوف	-10.4618
ments	-10.4625
cto	-10.4628
▁بعدها	-10.463
▁conseil	-10.4634
حف	-10.4636
كسب	-10.4638
▁جميع	-10.4641
▁حياتي	-10.4644
▁hice	-10.4644
▁BEST	-10.4644
▁vis	-10.4648
▁manger	-10.465
WA	-10.4651
▁أخذ	-10.4651
حقق	-10.4652
تمنى	-10.4657
tim	-10.4659
▁tri	-10.466
▁أمر	-10.4662
جانب	-10.4668
▁meilleure	-10.4671
▁aurait	-10.4672
▁chicos	-10.4677
▁كلنا	-10.4679
entra	-10.468
خسر	-10.468
cional	-10.4681
▁يدخل	-10.4685
▁concept	-10.4691
my	-10.4692
تحرك	-10.4693
▁utiliza	-10.4694
▁بهذه	-10.4697
ères	-10.4697
▁digital	-10.4712
SIDE	-10.4713
▁dan	-10.4716
ضحك	-10.472
▁سبحانه	-10.4722
mina	-10.4722
▁بعرف	-10.4722
ges	-10.4726
▁LIVES	-10.4728
▁varios	-10.4734
▁السيد	-10.4739
▁المرأة	-10.4742
▁فين	-10.4742
posición	-10.4748
▁cultura	-10.4752
éra	-10.4752
▁guerre	-10.4754
▁زمان	-10.4761
يبة	-10.477
▁version	-10.4773
▁وتعالى	-10.4774
▁MATTER	-10.4779
▁importa	-10.4787
▁DONE	-10.4787
▁rester	-10.4788
▁وكانت	-10.4792
raient	-10.4794
mit	-10.4796
▁quedar	-10.4797
▁cuánto	-10.48
▁mamá	-10.48
MP	-10.48
يون	-10.4801
▁REASON	-10.4805
▁parents	-10.4806
▁photos	-10.4806
▁invita	-10.4812
يخ	-10.4813
▁وكيف	-10.4817
▁fondo	-10.482
غم	-10.4826
istas	-10.4828
▁télé	-10.4829
▁حساب	-10.4829
ves	-10.4833
▁أع	-10.4833
سوي	-10.4836
IDE	-10.4836
ENCE	-10.4841
ائد	-10.4843
▁cool	-10.4843
ula	-10.4848
▁cause	-10.4854
rk	-10.4857
▁نفسها	-10.4858
▁المعلومات	-10.4862
▁REMEMBER	-10.4867
▁demander	-10.4868
▁لبنان	-10.487
▁voiture	-10.4874
طرح	-10.4879
▁لقيت	-10.4881
▁fui	-10.4885
فعال	-10.4891
gin	-10.4892
▁yeux	-10.4896
▁ejercicio	-10.4899
PU	-10.4902
بارك	-10.4902
▁ويا	-10.4905
وبة	-10.4906
ix	-10.4908
ew	-10.4909
▁أخو	-10.4916
لين	-10.4916
▁الحرب	-10.4917
▁والس	-10.492
▁quotidien	-10.4924
▁نقدر	-10.4926
▁RESEARCH	-10.493
▁ellas	-10.4931
▁سيد	-10.4931
LED	-10.4932
KY	-10.4934
▁والإ	-10.4938
▁حاليا	-10.4941
فع	-10.4941
▁termes	-10.4943
▁sigue	-10.4943
trait	-10.4947
▁temas	-10.4952
نز	-10.4952
▁desarrollo	-10.4956
▁milieu	-10.4959
▁futur	-10.4969
PO	-10.4971
▁FUTURE	-10.4972
▁التاريخ	-10.4978
iza	-10.498
▁fini	-10.4981
▁MEANS	-10.4981
▁debería	-10.4983
▁aparece	-10.4988
▁noir	-10.4993
ختلف	-10.4995
▁الض	-10.5002
iller	-10.5003
▁خارج	-10.5003
ATIONS	-10.5007
▁mise	-10.5009
غل	-10.5011
▁période	-10.502
▁نحكي	-10.5023
▁بسيطة	-10.5027
▁développement	-10.5027
جمال	-10.5028
▁تستطيع	-10.503
AV	-10.5031
▁الحا	-10.5033
▁demasiado	-10.5036
كسر	-10.5039
▁الخير	-10.504
▁وجه	-10.5041
▁minutos	-10.5042
SI	-10.5043
ap	-10.5046
ies	-10.505
وجه	-10.5051
قن	-10.5052
▁área	-10.5057
▁اني	-10.5061
▁mientras	-10.5062
▁النقطة	-10.5063
▁TALKING	-10.5068
▁ITS	-10.5069
dra	-10.507
هرب	-10.5077
▁mostrar	-10.5078
▁الست	-10.5082
سط	-10.5087
جيل	-10.5087
▁problèmes	-10.5087
▁sueño	-10.5089
avi	-10.509
▁Pro	-10.5091
sos	-10.5092
▁REC	-10.5093
▁cabeza	-10.5094
▁المح	-10.5095
▁OPEN	-10.5096
وقع	-10.5099
▁الواقع	-10.5103
▁rom	-10.5104
▁couleur	-10.5105
قو	-10.5105
▁merci	-10.5106
▁humano	-10.5116
TOR	-10.5116
▁sabía	-10.5119
RING	-10.5119
▁بتحب	-10.5121
▁the	-10.5125
▁entrar	-10.5126
▁arriba	-10.5126
▁نكون	-10.5126
▁valeur	-10.513
ata	-10.5131
▁أيام	-10.5134
▁permis	-10.514
يتي	-10.514
▁youtube	-10.5142
راد	-10.5143
▁المسا	-10.5145
quer	-10.5147
ليل	-10.5147
▁بإذن	-10.5148
▁النفس	-10.5149
NK	-10.5152
بية	-10.5153
▁وجود	-10.5163
▁Bonjour	-10.5164
▁combat	-10.5164
▁الآخر	-10.5168
▁selon	-10.5171
▁veo	-10.5178
▁détail	-10.518
صعب	-10.5181
lc	-10.5181
خير	-10.5183
IAL	-10.5184
▁صارت	-10.5188
activité	-10.5189
نهار	-10.5189
▁الدكتور	-10.5191
▁partido	-10.5192
غن	-10.5194
سع	-10.5195
▁أقل	-10.5196
▁generar	-10.5196
مات	-10.5196
▁تف	-10.52
▁control	-10.5202
▁alta	-10.5203
ología	-10.5208
▁content	-10.521
▁بدأ	-10.5214
▁pantalla	-10.5217
ONE	-10.5218
▁الملك	-10.522
هتم	-10.522
▁regard	-10.5221
▁dado	-10.5222
▁وحتى	-10.5223
cido	-10.5225
▁الفا	-10.5228
AI	-10.5229
▁acheté	-10.523
تحدي	-10.5232
شع	-10.5234
▁comida	-10.5235
▁منطقة	-10.5245
▁الكاميرا	-10.525
شة	-10.5254
مع	-10.5254
▁مشروع	-10.5255
نطق	-10.5256
lin	-10.5261
▁totalmente	-10.5264
▁طويلة	-10.5266
▁sympa	-10.5266
▁أمريكا	-10.5266
xo	-10.5267
ima	-10.5268
▁توصل	-10.5269
▁joue	-10.5275
▁COUNTRY	-10.5277
tir	-10.5277
ois	-10.528
▁for	-10.5287
دب	-10.5288
▁novela	-10.5288
▁بده	-10.529
▁مرحبا	-10.5293
▁diciendo	-10.5294
▁objetivo	-10.5296
▁depende	-10.5296
لوب	-10.5298
سمح	-10.5298
عزيز	-10.5299
▁scène	-10.5299
viv	-10.53
▁TRANS	-10.5303
▁mensaje	-10.5304
▁الخط	-10.5305
▁وعمل	-10.5307
▁répondre	-10.5308
▁café	-10.5316
بد	-10.5322
aurais	-10.5327
▁HAND	-10.5328
▁ideas	-10.5339
▁لإ	-10.5339
شيل	-10.534
ice	-10.534
▁público	-10.5342
▁baja	-10.5342
▁viaje	-10.5343
▁HEALTH	-10.5344
ISM	-10.5348
رام	-10.5353
▁تحب	-10.5361
▁النص	-10.5361
▁semble	-10.5363
zar	-10.5369
ادات	-10.5371
LINE	-10.5372
افية	-10.5373
rec	-10.5374
application	-10.5375
▁مرحلة	-10.5375
yn	-10.5376
RR	-10.5376
تحول	-10.538
ECT	-10.5382
▁retour	-10.5383
rg	-10.5386
IV	-10.5388
OE	-10.5391
▁representa	-10.5392
GI	-10.5392
▁quatre	-10.5392
▁احد	-10.5397
▁وإذا	-10.5398
اض	-10.5399
dica	-10.5402
▁conseille	-10.5402
▁رد	-10.5403
▁WITHOUT	-10.5419
istes	-10.5426
▁GROUP	-10.543
▁البا	-10.5438
▁adelante	-10.5441
ño	-10.5444
▁المباراة	-10.5447
▁فيديوهات	-10.5449
ndi	-10.545
▁espera	-10.5451
▁جوا	-10.5456
▁Todo	-10.5456
▁siècle	-10.5458
▁الفي	-10.546
tour	-10.5464
▁cerca	-10.5466
تن	-10.5472
STER	-10.5474
جعل	-10.5476
▁عال	-10.5477
▁calcul	-10.5486
▁clairement	-10.5491
▁dois	-10.5495
▁لحتى	-10.5496
▁pon	-10.5498
▁Mon	-10.55
▁أستاذ	-10.5501
لون	-10.5501
▁الفرق	-10.5502
SP	-10.5502
▁المدرسة	-10.5504
▁HOPE	-10.5505
▁técnica	-10.5507
أثر	-10.5512
lée	-10.5513
▁WALK	-10.5513
▁DR	-10.5529
▁br	-10.5533
▁seconde	-10.5534
▁حيث	-10.5541
▁تبدأ	-10.5541
WI	-10.5542
ضاء	-10.5544
▁personnage	-10.5547
▁continuer	-10.5549
▁fre	-10.5549
جال	-10.5553
ضل	-10.5554
ssé	-10.556
IG	-10.5563
▁كار	-10.5567
Cw	-10.5568
▁capital	-10.5569
▁UNDER	-10.557
جري	-10.5571
▁جوه	-10.5574
rée	-10.5578
▁النظر	-10.5579
▁limite	-10.558
▁direct	-10.5581
داد	-10.5585
▁SMALL	-10.5586
▁KEEP	-10.5586
▁يوصل	-10.5586
psvideoeswilde	-10.5587
MY	-10.5587
▁قالوا	-10.5588
Vo	-10.5592
▁connu	-10.5595
▁Ok	-10.5596
▁الكتب	-10.5599
ترجم	-10.5601
▁كت	-10.5605
UP	-10.5607
▁personnages	-10.5608
دول	-10.5608
▁أنني	-10.5611
▁FORM	-10.5611
بول	-10.5612
▁incroyable	-10.5614
▁message	-10.5614
UD	-10.5615
▁تب	-10.5617
sco	-10.5618
▁نظر	-10.5619
llo	-10.562
form	-10.5623
▁كثيرا	-10.5624
▁disponible	-10.5625
▁totalement	-10.5626
▁لعب	-10.5628
▁entendu	-10.5628
▁MILLION	-10.563
▁and	-10.5632
▁حبيت	-10.5633
▁hijos	-10.5634
▁LANGUAGE	-10.5636
▁cerveau	-10.5636
▁مؤ	-10.5638
حي	-10.5638
▁اكثر	-10.5641
▁LOOKING	-10.5641
▁manque	-10.5642
▁ميديا	-10.5643
MU	-10.5646
▁ثانية	-10.5647
udi	-10.5648
عتقد	-10.5651
PY	-10.5652
▁utilisé	-10.5654
▁SPACE	-10.5659
éc	-10.566
شتري	-10.5662
▁Hoy	-10.5663
▁التر	-10.5664
▁امريكا	-10.5664
▁مجرد	-10.5667
MM	-10.5672
▁bio	-10.5674
▁disais	-10.5675
ئة	-10.5676
اة	-10.5681
قصد	-10.5688
ndre	-10.5689
خف	-10.5691
▁معك	-10.5692
▁bienvenue	-10.5692
▁description	-10.5698
▁méthode	-10.5704
▁época	-10.5704
شرف	-10.5705
▁sola	-10.5705
▁الشركة	-10.571
نش	-10.5712
▁المست	-10.5714
▁للأسف	-10.5717
وصف	-10.5719
▁ربما	-10.572
ماء	-10.5721
▁TECHNOLOGY	-10.5726
▁حت	-10.5728
▁Go	-10.5728
خل	-10.5728
▁trabaja	-10.5728
eu	-10.5729
ناها	-10.5733
▁Ra	-10.5734
▁فهي	-10.5736
عالج	-10.5743
▁SENSE	-10.5744
zw	-10.5749
▁COMMUNITY	-10.5749
▁فهذا	-10.5749
▁WATER	-10.5749
▁capacité	-10.575
يقة	-10.5752
يفة	-10.5754
▁bref	-10.5756
▁المر	-10.5758
طان	-10.5759
▁OFTEN	-10.5764
idas	-10.577
▁واضح	-10.577
LING	-10.5777
▁cour	-10.5786
GM	-10.5787
▁الجمهور	-10.5791
▁يحب	-10.5792
▁قلب	-10.5794
▁défi	-10.5797
زو	-10.5797
pin	-10.5798
▁español	-10.5801
▁mouvement	-10.5801
hum	-10.5801
▁بالله	-10.5804
cita	-10.581
▁ainsi	-10.5812
▁terme	-10.5816
▁pequeño	-10.5816
▁محتاج	-10.5823
سوق	-10.5825
▁الاجتماعي	-10.5826
ct	-10.5827
▁الباب	-10.5827
ميز	-10.5828
rv	-10.5829
enfant	-10.5831
▁mental	-10.5832
▁fuerza	-10.5835
جات	-10.5835
▁toca	-10.5837
▁الرو	-10.5842
utiliser	-10.5843
▁وقد	-10.5846
ويت	-10.5846
▁particular	-10.5847
▁المفروض	-10.5852
dict	-10.5853
▁acheter	-10.5853
▁présente	-10.5855
mat	-10.5863
▁ANSWER	-10.5864
▁بسرعة	-10.5864
▁prêt	-10.5867
▁فلا	-10.5868
▁إي	-10.5868
cord	-10.5869
▁Las	-10.5871
رفض	-10.5872
▁lista	-10.5873
▁ثاني	-10.5873
▁أمام	-10.5876
▁carte	-10.5877
▁حياتك	-10.5884
UB	-10.5885
أس	-10.5886
▁cent	-10.5886
▁سر	-10.5895
rac	-10.5897
we	-10.5898
▁grands	-10.59
▁محل	-10.5904
▁fragancia	-10.5904
▁razón	-10.5904
تذكر	-10.5904
▁cherche	-10.5904
izado	-10.5904
▁طبيعي	-10.5906
SON	-10.5911
سية	-10.5912
▁وصل	-10.5913
▁choisir	-10.5913
▁البحر	-10.5915
جمل	-10.5919
يال	-10.5921
▁قاعدة	-10.5926
ok	-10.5929
hu	-10.5931
rig	-10.5934
▁هلا	-10.5934
اشي	-10.5936
▁extra	-10.5937
▁lograr	-10.5938
▁العظيم	-10.5941
▁movimiento	-10.5945
▁السم	-10.5947
▁والسلام	-10.5948
▁WHOLE	-10.5948
Ch	-10.5949
▁disent	-10.596
▁invertir	-10.5962
▁México	-10.5968
GG	-10.5969
مثال	-10.5973
▁MAKING	-10.5974
FU	-10.5976
▁الجسم	-10.5977
▁bajo	-10.5981
▁professionnel	-10.5982
▁فرق	-10.5983
▁pasando	-10.5988
▁aucun	-10.599
LM	-10.5999
شو	-10.6
ien	-10.6003
▁HAVING	-10.6003
ALLY	-10.6006
حدد	-10.6006
▁مب	-10.6007
▁semaines	-10.6008
▁أر	-10.6009
ura	-10.6012
▁trabajando	-10.6013
ik	-10.6013
▁rencontre	-10.6013
▁modo	-10.6013
▁décidé	-10.6014
لال	-10.6016
▁تأ	-10.6017
immobilier	-10.602
▁technologie	-10.602
▁commentaires	-10.6023
▁رأس	-10.6026
PS	-10.6026
▁أكل	-10.6027
▁والش	-10.6027
ña	-10.6028
▁TIMES	-10.6029
▁champ	-10.6029
▁tratar	-10.6032
▁سبب	-10.6033
عن	-10.6038
▁jugar	-10.6038
▁ah	-10.6039
▁CONS	-10.6043
▁technique	-10.6051
▁أب	-10.6053
سد	-10.6056
▁varias	-10.6056
ali	-10.6058
▁WHILE	-10.6061
▁الشيخ	-10.6062
سان	-10.6064
ودة	-10.6068
aurez	-10.607
▁Paris	-10.6071
SM	-10.6072
▁BODY	-10.6074
▁gal	-10.6077
▁opera	-10.6084
yk	-10.6095
jou	-10.6096
اكس	-10.6097
فرد	-10.6105
▁دم	-10.6106
صديق	-10.6107
▁فريق	-10.6115
▁tel	-10.6116
BER	-10.6119
▁cheveux	-10.612
ثبت	-10.612
▁TR	-10.6124
▁invite	-10.6125
▁contact	-10.6127
gQ	-10.6131
▁السا	-10.6132
▁música	-10.6132
▁orden	-10.6136
صحاب	-10.6137
ny	-10.6137
طلاق	-10.6139
▁souhaite	-10.6141
▁presque	-10.6152
▁لدينا	-10.6159
▁MOVE	-10.6159
▁entreprises	-10.616
▁explica	-10.6162
▁سنوات	-10.6164
بلغ	-10.6169
▁ليست	-10.6171
يلي	-10.6171
ego	-10.6175
UI	-10.6175
▁conseils	-10.6175
RAN	-10.6179
▁ELSE	-10.618
ea	-10.6182
▁GETTING	-10.6182
ations	-10.6188
humain	-10.6189
▁بيجي	-10.6191
بور	-10.6193
▁física	-10.6197
économie	-10.6197
▁mini	-10.6207
▁BRING	-10.6208
▁الرجل	-10.621
▁centro	-10.6212
باقي	-10.6214
▁nature	-10.6215
tée	-10.6217
▁فكان	-10.6219
▁siente	-10.622
▁ناحية	-10.6222
expliqu	-10.6224
▁change	-10.6225
بيض	-10.6225
▁PROCESS	-10.6227
▁TOOK	-10.6227
طرف	-10.6228
▁départ	-10.6228
sis	-10.6231
▁réseaux	-10.6231
cito	-10.6231
بسط	-10.6233
تواصل	-10.6234
▁سيكون	-10.6235
▁السر	-10.6236
▁SET	-10.6237
▁pena	-10.6239
▁idées	-10.6239
حيا	-10.624
▁apporte	-10.6245
▁فم	-10.6246
aimerais	-10.6246
▁لديك	-10.6249
سين	-10.6252
ral	-10.6252
▁bou	-10.6254
▁سب	-10.6259
fl	-10.6264
حلم	-10.6266
▁reto	-10.6267
let	-10.6271
▁trou	-10.6274
اسي	-10.6282
ige	-10.6284
تخصص	-10.6286
▁الحال	-10.6287
▁القرآن	-10.6287
▁dép	-10.6288
▁saison	-10.6292
▁حياته	-10.6293
▁pasó	-10.6294
▁puisse	-10.6304
HU	-10.6306
▁FOUR	-10.6307
▁تحط	-10.6308
▁papá	-10.6311
▁scientifique	-10.6317
▁FACE	-10.6317
واقع	-10.6319
▁impact	-10.6321
▁presenta	-10.6322
▁gratuit	-10.6322
▁طلعت	-10.6323
▁participa	-10.6323
NC	-10.6326
▁causa	-10.6327
ضة	-10.6332
▁ضمن	-10.6341
▁gobierno	-10.6347
▁ونحن	-10.6349
▁MAR	-10.6349
أرض	-10.6349
Xk	-10.6352
▁التو	-10.6356
offre	-10.6358
iques	-10.6358
▁principe	-10.6359
▁rôle	-10.6359
عقد	-10.636
▁تحس	-10.6362
lógica	-10.6365
ABILITY	-10.6365
▁الأو	-10.6367
ريح	-10.6368
lant	-10.637
▁natural	-10.637
ey	-10.6372
ñ	-10.6374
IO	-10.6375
▁موقع	-10.6379
▁práctica	-10.6381
▁prise	-10.6383
أكل	-10.6385
▁etcétera	-10.6389
ره	-10.639
▁ساعات	-10.639
▁fueron	-10.6393
ambi	-10.64
▁WAR	-10.6404
▁doute	-10.6404
DO	-10.6405
▁والن	-10.6407
▁ahorita	-10.6408
▁والب	-10.6414
ظر	-10.6414
▁faisait	-10.6416
▁جنب	-10.6417
▁devoir	-10.6421
جين	-10.6422
مارس	-10.6427
▁برو	-10.6428
حجم	-10.6433
معرفة	-10.6435
جامع	-10.6438
حرف	-10.6438
▁inversión	-10.6438
▁vender	-10.644
aña	-10.6441
▁imagen	-10.6441
▁contenu	-10.6445
EF	-10.6445
▁compara	-10.6445
IB	-10.6447
شان	-10.645
كان	-10.6453
▁padre	-10.6453
▁يعطي	-10.6456
FL	-10.6457
▁emb	-10.6459
▁calle	-10.6461
▁pied	-10.6462
▁increíble	-10.6463
▁المصري	-10.6466
▁Pas	-10.6467
▁théorie	-10.6469
analyse	-10.6469
idé	-10.6471
appel	-10.6474
▁créé	-10.6476
▁completamente	-10.6476
▁بتبقى	-10.6478
دعو	-10.6479
née	-10.6481
rde	-10.6485
Gk	-10.6489
▁piel	-10.649
▁arrivé	-10.6498
▁dépend	-10.6498
▁أخ	-10.6499
▁ANYTHING	-10.6499
▁المنتخب	-10.6503
▁PROBABLY	-10.6505
▁acompaña	-10.6505
▁rendu	-10.6507
▁sinon	-10.6509
▁tenéis	-10.6512
▁ganar	-10.6513
YA	-10.6514
iga	-10.6514
▁reco	-10.6514
▁عرفت	-10.6516
▁contraire	-10.6521
▁teléfono	-10.653
uve	-10.6531
BY	-10.6536
ual	-10.6536
▁بدل	-10.6545
▁معروف	-10.6546
objet	-10.6551
▁SURE	-10.6555
ANG	-10.6555
RN	-10.6555
fé	-10.6558
فقد	-10.6559
▁numéro	-10.6561
bol	-10.6561
▁السوق	-10.6564
▁hubiera	-10.6567
XM	-10.657
▁tira	-10.6575
▁قوية	-10.6581
▁وهم	-10.6585
▁الأن	-10.6591
▁تستخدم	-10.6592
▁hommes	-10.6593
ciona	-10.6595
util	-10.6596
راجع	-10.6603
▁continue	-10.6604
▁rappelle	-10.6605
mique	-10.661
شهد	-10.6613
▁constitu	-10.6616
pp	-10.6618
arse	-10.6621
itas	-10.6624
▁respecto	-10.6624
▁IMAGINE	-10.6629
▁شاف	-10.6634
▁directamente	-10.6636
▁معا	-10.6639
قوا	-10.664
▁Ho	-10.6641
▁empecé	-10.6648
دية	-10.665
فض	-10.6651
▁téléphone	-10.6654
Pg	-10.6658
▁chemin	-10.6661
▁Cu	-10.6661
pie	-10.6665
gado	-10.6665
▁atrás	-10.6666
▁DATA	-10.6666
exist	-10.6667
rement	-10.667
▁intro	-10.6672
▁nuevas	-10.6677
▁sabéis	-10.6679
▁actual	-10.6686
bor	-10.6691
▁النهاية	-10.6691
رسل	-10.6695
GY	-10.6698
▁gars	-10.6701
▁pensamiento	-10.6704
▁FRIENDS	-10.6709
▁études	-10.6709
▁probar	-10.6711
▁dirais	-10.6712
اعي	-10.6713
IONS	-10.6715
▁DESIGN	-10.6716
▁père	-10.6719
▁الدم	-10.6724
ساء	-10.6734
▁بدنا	-10.6734
سائل	-10.6736
وافق	-10.6736
▁معنى	-10.6738
▁مسلسل	-10.6742
▁appris	-10.6743
▁ét	-10.6744
▁خصوصا	-10.6745
▁التواصل	-10.6747
YM	-10.6749
lia	-10.675
▁يكن	-10.6755
fri	-10.6764
دت	-10.6766
▁PERCENT	-10.6767
▁NAME	-10.6767
▁expliquer	-10.677
▁pagar	-10.677
▁tengan	-10.677
▁tras	-10.6773
▁INFORMATION	-10.6773
▁carga	-10.6779
▁SUCH	-10.6779
▁Enfin	-10.6782
GH	-10.6785
▁répond	-10.6787
▁vision	-10.6788
▁organiza	-10.6788
▁bleu	-10.6789
inter	-10.679
▁gagner	-10.6797
▁مرات	-10.6797
▁prends	-10.6805
▁ولد	-10.6807
▁مشاهد	-10.6809
RAC	-10.6809
▁لأنها	-10.681
▁الحديث	-10.6811
▁classique	-10.6811
▁titre	-10.6812
▁hu	-10.6813
ميل	-10.6815
▁musique	-10.6817
anima	-10.6818
▁دخلت	-10.6818
▁plat	-10.682
▁عبر	-10.6823
▁رمضان	-10.6833
▁حياة	-10.6834
TW	-10.6835
▁gestion	-10.6837
ZU	-10.6838
▁استخدام	-10.6839
ze	-10.684
▁ouais	-10.6841
▁SCIENCE	-10.6842
▁صعبة	-10.6843
▁ASKED	-10.6844
▁mejorar	-10.6846
▁domin	-10.685
kY	-10.685
▁ولما	-10.6853
كتشف	-10.6854
edad	-10.6856
▁estaban	-10.6859
▁SEEM	-10.6862
▁للا	-10.6862
vari	-10.6868
▁Pi	-10.6869
ISE	-10.687
KING	-10.687
▁العرب	-10.6871
ريا	-10.6871
tk	-10.6873
▁بجد	-10.6873
lado	-10.6881
▁تعالى	-10.6883
PR	-10.6883
حسب	-10.6885
▁podéis	-10.6887
ult	-10.689
▁ابو	-10.689
▁sirve	-10.6891
تحمل	-10.6893
▁estudio	-10.6894
OU	-10.6894
قات	-10.6897
▁الاخر	-10.6897
die	-10.69
▁ممتاز	-10.69
اخ	-10.6904
▁fille	-10.6905
▁تجيب	-10.6909
▁dix	-10.6913
▁والح	-10.692
▁فإن	-10.692
▁مقابل	-10.6921
منع	-10.6922
▁come	-10.6924
▁fotografía	-10.6925
▁lorsqu	-10.6929
▁WASN	-10.6929
▁mère	-10.6932
ques	-10.6934
▁باب	-10.6936
▁الجامعة	-10.6938
ís	-10.6943
ISH	-10.6943
PM	-10.6944
▁SELF	-10.6945
▁كريم	-10.6948
▁enfant	-10.6949
قع	-10.6949
تعرض	-10.6954
uk	-10.6955
▁أربع	-10.6955
▁Son	-10.6957
lam	-10.6959
▁possibilité	-10.6964
▁المدينة	-10.6964
▁BAD	-10.6965
▁يريد	-10.6966
▁pronto	-10.6966
fin	-10.6967
ín	-10.6968
▁común	-10.697
xy	-10.6971
ko	-10.6972
▁facilement	-10.6977
بدا	-10.6978
▁السبب	-10.6981
iff	-10.6983
▁vendre	-10.699
▁اتنين	-10.6992
sser	-10.6992
rais	-10.6996
▁سعر	-10.6996
▁ستة	-10.6996
Wk	-10.6997
رسم	-10.7001
▁vit	-10.7003
▁ves	-10.7004
عظم	-10.7005
Aw	-10.7007
▁لحظة	-10.7011
▁presente	-10.7011
بال	-10.7013
▁nota	-10.7019
دام	-10.7021
▁FIVE	-10.7021
NG	-10.7026
▁DIE	-10.7027
▁تد	-10.7027
خد	-10.7028
▁efecto	-10.7028
▁KNEW	-10.7028
▁paciente	-10.7028
▁مز	-10.7032
▁rue	-10.7032
▁الثالث	-10.7033
gh	-10.7033
FY	-10.7034
▁soin	-10.7034
▁plupart	-10.7035
▁Des	-10.7037
▁زيادة	-10.7037
▁Comment	-10.7039
▁changement	-10.7045
بيت	-10.7046
تشر	-10.7054
▁puntos	-10.7056
▁frente	-10.7057
▁taille	-10.7064
Ak	-10.7069
▁هتلاقي	-10.707
▁بمعنى	-10.7076
▁عز	-10.7077
▁ONCE	-10.7077
uz	-10.7079
rado	-10.7079
▁التعليقات	-10.708
▁الفيديوهات	-10.7083
▁الحق	-10.7084
▁observa	-10.7087
tera	-10.7089
▁بسيط	-10.7094
EC	-10.7096
جمهور	-10.7097
▁parfait	-10.7099
عية	-10.7103
▁خاص	-10.7104
▁جيد	-10.7106
hier	-10.7106
AKE	-10.7108
emp	-10.7114
▁salle	-10.7118
▁machine	-10.712
▁باي	-10.712
طالع	-10.7122
Kr	-10.7125
▁BUSINESS	-10.7126
قال	-10.7126
indi	-10.7129
WH	-10.7143
لمان	-10.7145
▁ley	-10.7147
eva	-10.715
bon	-10.7151
لى	-10.7154
▁الجزء	-10.716
▁تقدم	-10.716
▁HAPPENED	-10.7164
eña	-10.7167
IQ	-10.7171
▁élèves	-10.7171
JQ	-10.7171
▁objeto	-10.7174
▁videos	-10.7175
▁وسهلا	-10.7178
UN	-10.7179
▁CHA	-10.7181
écoute	-10.7188
EP	-10.7192
خلف	-10.7195
gua	-10.72
truc	-10.7201
vol	-10.7204
▁الوصف	-10.7207
▁pesos	-10.7209
مد	-10.7209
سعد	-10.7209
FF	-10.7209
▁STORIES	-10.7211
▁corazón	-10.7211
▁نتيجة	-10.7212
هب	-10.7213
▁تكونوا	-10.7214
▁ROOM	-10.7218
▁projets	-10.7219
rea	-10.7222
▁edad	-10.7228
▁economía	-10.7231
▁prácticamente	-10.724
عيب	-10.7241
ضعف	-10.7256
▁أتمنى	-10.7257
▁gustaría	-10.7262
▁الطب	-10.7263
▁nuit	-10.7265
uff	-10.7267
▁الخل	-10.7268
▁original	-10.727
ZE	-10.7271
▁mur	-10.7273
اتنا	-10.7273
▁subir	-10.7276
▁LIVING	-10.7277
▁zone	-10.728
▁للش	-10.7281
نيا	-10.7282
▁elementos	-10.7283
▁الحكومة	-10.7285
اعات	-10.7286
▁تخلي	-10.7286
ولاد	-10.7289
rí	-10.7291
VO	-10.7293
▁investi	-10.7294
فريق	-10.7295
▁Maintenant	-10.7297
▁cocina	-10.7297
▁dolor	-10.7297
uch	-10.7302
▁court	-10.7302
▁gustó	-10.7304
▁الفل	-10.7308
anda	-10.7312
▁An	-10.7314
▁الام	-10.7316
ظاهر	-10.7317
JE	-10.7321
لاف	-10.7322
▁bonito	-10.7325
تسع	-10.7325
تأكد	-10.7325
▁document	-10.7328
▁الوضع	-10.733
رار	-10.733
▁papel	-10.7331
▁Pe	-10.7335
▁نادي	-10.7336
▁función	-10.7339
▁يحصل	-10.7343
▁انهم	-10.7343
occasion	-10.7344
▁reg	-10.7346
▁según	-10.7347
▁أكون	-10.735
▁critique	-10.735
▁إنك	-10.735
ديك	-10.7353
▁سريع	-10.7357
صم	-10.7358
▁Facebook	-10.7364
▁معلومات	-10.7364
▁realizar	-10.7366
▁position	-10.7367
▁mala	-10.737
برضه	-10.7372
emploi	-10.7373
ías	-10.7375
▁DEC	-10.7375
▁allí	-10.7377
▁MIS	-10.738
▁rouge	-10.7384
▁ganas	-10.7385
ضو	-10.7387
▁étant	-10.7387
▁sociaux	-10.739
▁bonjour	-10.739
▁diseño	-10.739
▁especie	-10.739
▁التعليم	-10.739
rait	-10.739
▁Va	-10.7392
▁medida	-10.7393
▁millions	-10.7395
tando	-10.7396
▁cadre	-10.7399
▁تلاقي	-10.74
▁décide	-10.7404
▁tierra	-10.7404
دوا	-10.7405
uta	-10.7406
ensemble	-10.7408
تعلق	-10.7409
▁ذات	-10.741
سابق	-10.7418
▁عالية	-10.742
▁épisode	-10.7421
az	-10.7421
aujourd	-10.7423
طرق	-10.7427
▁دون	-10.7428
▁viennent	-10.7431
▁mismos	-10.7434
▁partage	-10.7435
▁SOCIETY	-10.7437
▁STUDY	-10.7437
▁CASE	-10.7438
▁clair	-10.7439
▁HAPPEN	-10.7439
▁بالضبط	-10.744
ارد	-10.744
▁حقيقة	-10.744
▁sort	-10.7441
▁dando	-10.7442
كشف	-10.7445
نتاج	-10.7446
agne	-10.7447
pal	-10.7448
▁momentlà	-10.745
▁رائع	-10.7451
▁COMES	-10.7454
▁حدث	-10.7457
XY	-10.7464
▁moyen	-10.7465
قض	-10.7466
▁necesario	-10.7471
▁barre	-10.7472
▁Ta	-10.7473
▁Aquí	-10.7475
يشن	-10.7476
▁يروح	-10.7477
▁mou	-10.7478
▁connaissez	-10.748
▁المشروع	-10.7481
▁مركز	-10.7484
▁EVERYONE	-10.7486
AH	-10.7487
OY	-10.7489
▁logra	-10.7493
▁وغير	-10.7493
▁بيحب	-10.7496
نم	-10.7497
▁responsable	-10.7498
فوت	-10.7499
▁بأنه	-10.7502
▁blog	-10.7505
ريال	-10.7511
▁escuchar	-10.7514
érer	-10.7517
▁الحالة	-10.7518
عادل	-10.7522
▁USING	-10.7523
▁énorme	-10.7525
▁تنسوا	-10.7525
▁abonner	-10.7528
▁Ou	-10.7528
▁amigo	-10.7529
▁أجل	-10.7537
▁EDUCATION	-10.7539
▁الث	-10.7541
طبخ	-10.7541
Ri	-10.7541
▁telle	-10.7542
▁قوة	-10.7543
IY	-10.7544
▁وأيضا	-10.7546
▁fallait	-10.7547
chu	-10.7548
▁بسم	-10.7548
ji	-10.755
▁FELT	-10.7553
▁MOTHER	-10.7553
▁التانية	-10.7555
ستمتع	-10.7556
ساب	-10.7559
▁éxito	-10.7559
ربط	-10.7559
▁espèce	-10.756
▁الجديد	-10.7561
جاوب	-10.7564
▁معهم	-10.7566
▁YOURSELF	-10.7566
▁économique	-10.7566
نع	-10.7568
▁تجربة	-10.7571
ust	-10.7572
astro	-10.7572
▁riesgo	-10.7573
arrêter	-10.7576
acco	-10.7576
iers	-10.7577
▁paga	-10.7578
▁DREAM	-10.758
▁piensa	-10.758
▁muchísimas	-10.7582
▁الهدف	-10.7582
صاد	-10.7583
▁frase	-10.7584
▁Bu	-10.7584
mbo	-10.7586
يام	-10.7587
land	-10.7591
▁comenzar	-10.7594
▁avance	-10.7596
▁بتت	-10.7597
tivos	-10.7599
BS	-10.7602
wi	-10.7602
▁السوري	-10.7604
▁لأي	-10.7607
ole	-10.7613
▁مباراة	-10.7614
صال	-10.7616
▁aspecto	-10.7616
▁pou	-10.7617
Lw	-10.7618
▁conscience	-10.7621
sexual	-10.7622
▁خا	-10.7623
شق	-10.7623
▁aplicación	-10.7624
▁estén	-10.7626
▁seguramente	-10.7629
▁vienen	-10.7631
▁الانت	-10.7633
oli	-10.764
▁اخو	-10.7643
▁tuve	-10.7645
خال	-10.7645
arme	-10.7647
▁تج	-10.7647
▁médecin	-10.7648
lk	-10.7654
▁opción	-10.7657
▁WORDS	-10.7658
▁النوع	-10.7658
yY	-10.7659
XQ	-10.766
▁اتكلم	-10.7661
▁comunicación	-10.7664
▁بحيث	-10.7669
ستمر	-10.767
ابي	-10.7671
Uw	-10.7674
وعد	-10.7674
▁CLASS	-10.7676
▁HEAR	-10.7681
عدل	-10.7682
▁inteligencia	-10.7683
échange	-10.769
LIC	-10.7691
▁آه	-10.7694
▁camp	-10.7694
▁كاملة	-10.77
▁fundamental	-10.7702
dre	-10.7703
▁pièce	-10.7703
blo	-10.7703
▁ALREADY	-10.7704
▁planète	-10.7704
▁cambia	-10.7706
▁ouvert	-10.7709
éducation	-10.7711
▁CHILD	-10.7711
▁STOP	-10.7712
▁انتوا	-10.7713
▁الساعة	-10.7713
▁foto	-10.7717
▁venta	-10.7718
شغال	-10.7723
▁MAKES	-10.7725
aille	-10.7727
إدارة	-10.773
حو	-10.773
قار	-10.7731
▁inclu	-10.7736
▁Sh	-10.7737
▁لإن	-10.7738
▁estable	-10.7738
▁اكيد	-10.7739
▁نتحدث	-10.7739
▁أغ	-10.7739
▁amiga	-10.7742
▁الأد	-10.7742
▁connais	-10.7743
▁إلي	-10.7749
ارية	-10.7751
▁consejo	-10.7752
VQ	-10.7754
dora	-10.7756
حرب	-10.776
ودي	-10.7763
▁أنهم	-10.7764
rm	-10.7764
▁يأتي	-10.7765
▁درا	-10.7771
باك	-10.7772
▁PROJECT	-10.7773
صرف	-10.7774
ORS	-10.7775
▁revenir	-10.7776
اتك	-10.7777
▁FEELING	-10.778
▁sitio	-10.7782
JO	-10.7783
▁النظام	-10.7789
TT	-10.7791
▁recuerdo	-10.7794
راحة	-10.7796
▁فرصة	-10.7798
▁التل	-10.7799
▁promo	-10.7802
▁وراء	-10.7802
vel	-10.7803
حدث	-10.7804
▁فبالتالي	-10.7808
▁مباشرة	-10.7811
product	-10.7813
▁resultados	-10.7814
▁البرنامج	-10.7815
intelligence	-10.7815
▁pensé	-10.7817
رية	-10.7819
▁industria	-10.7822
▁proposer	-10.7822
▁evento	-10.7823
rama	-10.7824
امر	-10.7828
▁estructura	-10.7829
▁MUSIC	-10.7829
▁garder	-10.7836
▁afecta	-10.7836
▁hombres	-10.7837
على	-10.7837
nent	-10.7838
▁أص	-10.7844
اتهم	-10.7845
▁BOTH	-10.7847
▁phrase	-10.785
▁تكتب	-10.7852
▁تشتغل	-10.7856
▁prueba	-10.7857
يحة	-10.7858
vio	-10.7859
▁demain	-10.7864
هاش	-10.7864
▁profesor	-10.7865
▁voire	-10.7865
▁بالس	-10.7866
▁detalle	-10.7867
▁اللعبة	-10.7869
▁suficiente	-10.7871
▁hermano	-10.7871
naire	-10.7871
فين	-10.7872
▁campo	-10.7872
▁الكبير	-10.7874
▁acepta	-10.7874
لوك	-10.7875
OI	-10.7876
▁acción	-10.7876
▁اثنين	-10.7878
▁profesional	-10.7878
▁ويقول	-10.7879
ustra	-10.788
▁franc	-10.7885
ZA	-10.7886
▁أنواع	-10.7892
ieux	-10.7894
▁وصلنا	-10.7897
erie	-10.7902
▁avaient	-10.7908
بعت	-10.7909
▁hijo	-10.7909
حرق	-10.7911
ندي	-10.7913
لاء	-10.7913
tier	-10.7915
يكي	-10.7919
▁مف	-10.7919
▁sencillo	-10.792
▁بتعرف	-10.7922
▁البو	-10.7924
▁فقال	-10.7925
شرة	-10.7926
apprentissage	-10.7927
▁éléments	-10.7928
لاعب	-10.7931
▁بتاعك	-10.7931
▁desarrollar	-10.7932
▁ninguna	-10.7935
▁hablamos	-10.7936
EY	-10.7944
قنا	-10.7946
انا	-10.7947
▁OK	-10.7949
Oc	-10.7949
▁compren	-10.795
▁respect	-10.7951
بك	-10.7952
▁الشارع	-10.7953
▁don	-10.7954
▁Ex	-10.7955
قية	-10.7955
▁alto	-10.7957
▁الصوت	-10.7959
▁escribir	-10.7961
▁كمية	-10.7964
jQ	-10.7964
▁réaliser	-10.7966
▁Estados	-10.7967
▁STUDENTS	-10.7967
سن	-10.7968
▁سعيد	-10.7969
▁الفريق	-10.7969
▁encuentra	-10.7972
ATOR	-10.7972
يران	-10.7974
علوم	-10.7976
ería	-10.7981
شاعر	-10.7982
رحل	-10.7983
▁اهم	-10.7984
▁Unidos	-10.7986
▁تسوي	-10.7986
lib	-10.7987
▁المحل	-10.7988
▁debemos	-10.7988
▁الشا	-10.7989
ريس	-10.7991
▁مسا	-10.7991
ران	-10.7991
▁exactamente	-10.7991
أفكار	-10.7992
قيت	-10.7993
▁HEAD	-10.7993
بيل	-10.7994
apprend	-10.7995
▁resto	-10.7996
▁alrededor	-10.7998
▁الخاصة	-10.8001
▁rentrer	-10.8002
فشل	-10.8002
▁nuevos	-10.8002
كوم	-10.8003
▁تعال	-10.8003
▁aprendizaje	-10.8006
▁aumenta	-10.8007
هام	-10.8008
bk	-10.8009
▁عايش	-10.801
▁cinq	-10.8011
mbra	-10.8012
▁CHALLENGE	-10.8013
▁Da	-10.8015
▁Ne	-10.8016
gk	-10.8017
حش	-10.8019
اتها	-10.8019
وجود	-10.802
▁perdu	-10.8021
▁bonnes	-10.8027
▁بالعكس	-10.8027
تام	-10.8028
IF	-10.8031
bn	-10.8034
▁perder	-10.8034
▁YET	-10.8035
▁tester	-10.8036
▁método	-10.8041
▁devient	-10.8042
RC	-10.8042
▁triste	-10.8043
علاق	-10.8046
▁central	-10.8046
▁veulent	-10.8048
▁encima	-10.8049
ثة	-10.8052
▁perfecto	-10.8056
▁maladie	-10.8056
tt	-10.8056
خضر	-10.8057
▁tengas	-10.8059
▁devenu	-10.8062
ky	-10.8064
رن	-10.8065
RB	-10.8068
investissement	-10.807
▁He	-10.8071
vu	-10.8072
▁العراق	-10.8073
▁الفنان	-10.8075
تقال	-10.8075
▁ENERGY	-10.8077
▁menciona	-10.8077
mE	-10.808
Fw	-10.8081
▁défini	-10.8082
▁anglais	-10.8083
▁indica	-10.8084
▁texto	-10.8085
▁رسالة	-10.8086
لية	-10.8087
EVER	-10.8088
خصوص	-10.8088
▁materia	-10.809
▁نظام	-10.809
▁nouveaux	-10.809
فية	-10.8091
▁chaud	-10.8095
طع	-10.8096
▁بتاعه	-10.8097
جميع	-10.81
▁modern	-10.8101
▁préféré	-10.8102
▁venu	-10.8103
arlo	-10.8105
ائن	-10.8105
خطأ	-10.8106
▁بزاف	-10.8106
▁encontramos	-10.8107
▁aparte	-10.8107
زمن	-10.8107
▁Hu	-10.8109
▁بأي	-10.8109
زعل	-10.811
aut	-10.8111
▁pareja	-10.8113
arrête	-10.8116
▁puedas	-10.8118
tel	-10.8121
▁conoce	-10.8123
▁WAYS	-10.8124
QF	-10.8125
for	-10.8126
▁realiza	-10.8128
▁absolutamente	-10.8128
▁SORT	-10.8128
rM	-10.8128
mba	-10.8129
▁والف	-10.8131
arte	-10.8132
▁يعتبر	-10.8132
▁كويسة	-10.8133
ليك	-10.8134
▁WHETHER	-10.8135
▁شعب	-10.8136
pat	-10.8138
هج	-10.8139
سيطر	-10.8139
▁عشرة	-10.8141
accès	-10.8142
▁عالي	-10.8143
▁solution	-10.8148
▁WRONG	-10.8149
▁cuisine	-10.8149
▁Bref	-10.8149
▁lis	-10.8153
إسرائيل	-10.8153
▁SAYING	-10.8158
تبع	-10.8163
▁global	-10.8163
▁efficace	-10.8164
▁تص	-10.8164
▁planeta	-10.8165
ira	-10.8166
oQ	-10.8166
لكم	-10.8169
▁التق	-10.8169
▁charge	-10.817
▁vosotros	-10.8171
خطر	-10.8172
OLD	-10.8173
▁الأطفال	-10.8174
▁ACT	-10.8176
ezvous	-10.8177
ah	-10.8181
▁pueblo	-10.8185
mática	-10.8187
étude	-10.8189
ZI	-10.8191
▁OURSELVES	-10.8193
▁malheureusement	-10.8193
▁العم	-10.8195
▁flu	-10.8195
CTION	-10.8198
émission	-10.82
écran	-10.8201
igna	-10.8202
▁destin	-10.8204
tiques	-10.8204
ضيع	-10.8206
▁الأكل	-10.8207
تصرف	-10.8211
Hk	-10.8215
lá	-10.8215
tic	-10.822
▁afin	-10.8222
▁الجهاز	-10.8222
▁لدي	-10.8224
▁banque	-10.8232
▁tipos	-10.8235
▁كانش	-10.8237
▁تسمع	-10.8237
▁الإسلام	-10.8242
▁فيش	-10.8242
ek	-10.8243
rat	-10.8244
▁PRODUCT	-10.8244
▁القانون	-10.8244
▁manga	-10.8245
▁هيكون	-10.8249
▁الكريم	-10.8249
دك	-10.825
▁aucune	-10.8252
▁filosofía	-10.8258
ثمان	-10.826
▁LEARNED	-10.826
▁PRETTY	-10.8266
▁PROGRAM	-10.8266
▁المل	-10.8268
active	-10.8274
ولد	-10.8278
▁شغلة	-10.8278
VING	-10.8278
خاطر	-10.828
▁feliz	-10.828
dou	-10.8285
سار	-10.8286
▁allé	-10.8286
تون	-10.8287
▁collection	-10.8288
▁الفلسطيني	-10.8288
▁CLOSE	-10.8288
NT	-10.8288
grade	-10.8291
▁OTHERS	-10.8292
avantage	-10.8294
▁maximum	-10.8295
▁necesitamos	-10.8295
MAN	-10.83
▁viens	-10.8301
نتج	-10.8302
▁décision	-10.8302
غرب	-10.8303
itaire	-10.8304
ARM	-10.8308
▁منذ	-10.8312
igné	-10.8319
ié	-10.8319
صي	-10.832
UA	-10.8323
▁magnifique	-10.8324
iné	-10.8324
tec	-10.8326
مير	-10.8327
▁service	-10.8327
▁lors	-10.8328
lí	-10.833
▁أعتقد	-10.8331
▁المال	-10.8335
صا	-10.8335
جت	-10.8337
▁acciones	-10.8337
▁precisamente	-10.8339
▁WOMAN	-10.8339
تأثير	-10.834
راق	-10.8341
lou	-10.8343
▁STATE	-10.8344
▁données	-10.8345
▁dio	-10.8345
▁meter	-10.8347
تز	-10.8348
▁niña	-10.8349
▁FAR	-10.835
▁gana	-10.8354
PORT	-10.8354
▁cuidado	-10.8354
زرع	-10.8355
▁allait	-10.8355
▁tom	-10.8357
تخلص	-10.836
علن	-10.8361
ouvrir	-10.8361
▁هؤلاء	-10.8361
▁dedans	-10.8361
▁humanos	-10.8362
jas	-10.8366
▁QUITE	-10.8369
فوز	-10.837
quant	-10.8371
توقف	-10.8375
▁enseña	-10.8376
▁The	-10.8376
ft	-10.8378
▁visite	-10.8378
▁tienda	-10.8379
acheter	-10.8381
الية	-10.8384
▁pourra	-10.8385
شجع	-10.8385
▁التاني	-10.8388
▁نور	-10.8388
▁resulta	-10.839
▁gusto	-10.8391
individu	-10.8394
▁versión	-10.8395
▁mec	-10.8396
▁READ	-10.8398
▁région	-10.8398
▁bord	-10.8399
aj	-10.8403
▁وكذلك	-10.8406
تحقيق	-10.8407
وخ	-10.8407
gw	-10.8411
▁LARGE	-10.8413
راضي	-10.8414
▁أخي	-10.8415
اقة	-10.8419
▁الحج	-10.842
tat	-10.8422
نتظر	-10.8423
▁SOMETIMES	-10.8428
▁أننا	-10.8428
▁clave	-10.8428
▁موقف	-10.8429
▁consiste	-10.8429
ITION	-10.8432
▁وكده	-10.8437
▁ressources	-10.8442
▁إيش	-10.8443
jk	-10.8444
اذ	-10.8445
▁INSTEAD	-10.845
▁خطوة	-10.8452
▁BUILD	-10.8452
▁NIGHT	-10.8454
▁pourtant	-10.8454
Ru	-10.8456
▁teoría	-10.8458
▁الجديدة	-10.8458
ule	-10.8458
▁diga	-10.8459
▁SAW	-10.8462
▁الماء	-10.8464
▁terminé	-10.8465
▁gras	-10.8466
▁LEARNING	-10.8467
▁المتحدة	-10.8473
▁SINGLE	-10.8473
▁TRUE	-10.8481
▁وكذا	-10.8481
▁المحتوى	-10.8488
▁لون	-10.8488
اسة	-10.8488
lico	-10.8491
LS	-10.8492
WN	-10.8493
sk	-10.8495
▁الدور	-10.8498
▁مميز	-10.8498
▁proche	-10.8501
pc	-10.8501
▁demandé	-10.8503
▁للب	-10.8503
▁plataforma	-10.851
ساد	-10.8512
▁SOUND	-10.8513
طاق	-10.8516
▁empezamos	-10.8518
qg	-10.8521
▁يحتاج	-10.8523
BO	-10.8523
فى	-10.8523
fM	-10.8524
وير	-10.8527
ونة	-10.8527
▁PARENTS	-10.8528
wQ	-10.8529
طفال	-10.853
▁mod	-10.8531
▁pouvait	-10.8533
▁STEP	-10.8533
ités	-10.8534
▁قانون	-10.8535
ؤثر	-10.8539
ordre	-10.8543
ايد	-10.8544
▁sortie	-10.8544
سود	-10.8546
épi	-10.8546
▁passion	-10.8548
▁الطبيعي	-10.8554
حمر	-10.8555
غلب	-10.8557
▁fotos	-10.8558
▁بنات	-10.8558
có	-10.8561
▁malo	-10.8562
▁ورح	-10.8562
▁prenez	-10.8564
▁spécial	-10.8564
ep	-10.8567
agir	-10.8568
▁vraie	-10.8573
▁الدي	-10.8575
▁المنتج	-10.8582
Mo	-10.8583
▁bat	-10.8585
▁NOTHING	-10.8585
psvideoeswilda	-10.8586
▁cuales	-10.8587
vw	-10.8589
▁تحتاج	-10.8592
▁رغم	-10.8595
xg	-10.8597
iI	-10.8599
▁vuelta	-10.8601
WQ	-10.8602
▁dessin	-10.8606
دان	-10.8606
تعاون	-10.8608
PHONE	-10.8609
Zw	-10.8614
▁buscando	-10.8614
pan	-10.8614
▁formas	-10.8615
▁نسبة	-10.8615
غار	-10.8619
▁tanta	-10.8625
▁الشركات	-10.8631
ولا	-10.8634
alité	-10.8636
▁robot	-10.8639
▁تجد	-10.8643
حرك	-10.8645
▁contrôle	-10.8646
OW	-10.8649
ola	-10.865
▁tercer	-10.8651
▁casos	-10.8651
▁precios	-10.8652
pI	-10.8652
arrière	-10.8653
rA	-10.8656
ريم	-10.8659
▁Nos	-10.866
▁CONTROL	-10.8661
▁Man	-10.8662
▁terminar	-10.8667
ائق	-10.8667
هدي	-10.8669
vQ	-10.8669
▁revi	-10.8669
▁الشهر	-10.867
ajoute	-10.8673
▁HEART	-10.8676
▁ocurre	-10.8676
▁تطبيق	-10.8677
نمو	-10.8677
▁أعطي	-10.8677
ker	-10.8684
ستغل	-10.8684
ITIES	-10.8686
دس	-10.8687
cin	-10.8689
ظن	-10.8692
illas	-10.8696
▁بتاعتك	-10.8696
▁تتعلم	-10.8696
zY	-10.8696
BB	-10.8698
▁LEFT	-10.8699
igo	-10.8701
▁momentos	-10.8702
▁Fa	-10.8704
▁pensando	-10.8707
iera	-10.8707
جون	-10.8709
▁يقولون	-10.8709
RK	-10.8718
▁وهنا	-10.872
▁rang	-10.8721
toria	-10.8722
essaie	-10.8725
▁COMING	-10.8727
nis	-10.8727
▁الكلمة	-10.8732
vY	-10.8735
حص	-10.8735
▁بالب	-10.8737
jA	-10.8738
حترم	-10.8738
▁LATER	-10.874
ؤمن	-10.8743
▁próxima	-10.8745
يتها	-10.8746
▁الجيش	-10.8748
▁Be	-10.875
JI	-10.875
▁padres	-10.8751
تجاه	-10.8759
▁inglés	-10.8761
▁sucede	-10.8761
▁وحدة	-10.8762
▁vlog	-10.8763
سلط	-10.8766
▁ofrece	-10.8769
▁visage	-10.877
▁وممكن	-10.877
▁افضل	-10.8771
prim	-10.8772
gE	-10.8772
▁distribu	-10.8776
▁naturaleza	-10.8776
▁إنها	-10.8777
رتب	-10.8777
venir	-10.8782
خن	-10.8784
▁centre	-10.8786
Nk	-10.8786
ناه	-10.8787
سحب	-10.8788
ICAL	-10.8792
Ro	-10.8792
ose	-10.8793
▁personajes	-10.8794
مرة	-10.8795
▁réussir	-10.8796
Xg	-10.8796
hM	-10.8796
▁lié	-10.8797
▁LAB	-10.8798
نظم	-10.88
BOOK	-10.8802
▁سبع	-10.8802
og	-10.8804
lip	-10.8804
▁certaine	-10.8806
▁lectura	-10.8807
eQ	-10.8809
ثر	-10.8811
voir	-10.8812
مار	-10.8814
▁PUBLIC	-10.8815
▁واست	-10.882
▁اليمن	-10.882
▁GOVERNMENT	-10.8822
▁المجموعة	-10.8825
▁أشوف	-10.8825
▁PAIN	-10.8826
▁بره	-10.8831
واحد	-10.8834
▁ENVIRONMENT	-10.8838
▁SIMPLE	-10.8838
▁المرحلة	-10.8838
▁يتكلم	-10.884
expérience	-10.8842
particulièrement	-10.8843
▁existen	-10.8843
باس	-10.8847
عاني	-10.8847
▁repas	-10.8849
Uo	-10.8849
tage	-10.8849
▁الأسئلة	-10.885
▁اتمنى	-10.8851
▁SUPPORT	-10.8853
▁término	-10.8853
imagine	-10.8853
▁لهذه	-10.8853
▁والناس	-10.8854
▁devez	-10.8854
نتهي	-10.8856
▁وسط	-10.8861
دافع	-10.8868
▁العب	-10.8868
▁أحيانا	-10.8869
▁fija	-10.8872
KA	-10.8873
▁السو	-10.8874
▁estrategia	-10.8877
▁ORDER	-10.8877
▁يلعب	-10.888
▁única	-10.8882
▁DAYS	-10.8882
Eg	-10.8883
▁cuestión	-10.8884
▁papier	-10.8884
▁pedir	-10.8885
▁أساس	-10.8885
ast	-10.8886
tc	-10.8891
▁anterior	-10.8891
▁إما	-10.8893
rap	-10.8894
وله	-10.8901
▁vivo	-10.8905
▁VALUE	-10.8908
▁وبن	-10.891
ray	-10.8911
▁manda	-10.8914
▁conmigo	-10.8916
▁génial	-10.8916
يزة	-10.8916
▁البن	-10.892
CM	-10.892
clar	-10.8921
▁بالن	-10.8924
origine	-10.8924
FT	-10.8924
ونها	-10.8924
▁perdre	-10.8926
امل	-10.8926
▁dejo	-10.893
▁اعرف	-10.8931
▁جنيه	-10.8932
▁المناسب	-10.8933
▁بالإ	-10.8935
hiver	-10.8935
▁Tiene	-10.894
▁مرتب	-10.8945
Tg	-10.8947
▁تفاصيل	-10.8947
يص	-10.8949
فاق	-10.8949
قصص	-10.895
▁poste	-10.8952
ليس	-10.8954
▁marketing	-10.8963
▁contribu	-10.8963
nage	-10.8965
▁احسن	-10.8965
▁visita	-10.8969
عارض	-10.8969
▁falloir	-10.897
▁meta	-10.8971
او	-10.8972
▁بب	-10.8972
▁imagina	-10.8976
ête	-10.8982
▁voie	-10.8982
zQ	-10.8983
▁longue	-10.8985
▁recursos	-10.8987
قضي	-10.8987
▁personnel	-10.8989
UC	-10.8991
▁لديه	-10.8992
رح	-10.8992
▁soient	-10.8992
▁disant	-10.8994
▁seguridad	-10.8994
▁normalmente	-10.8995
▁dedica	-10.9001
extérieur	-10.9002
▁prepara	-10.9006
▁liste	-10.9007
▁obliga	-10.9008
élé	-10.9011
▁repente	-10.9013
▁cuesta	-10.9013
tré	-10.9013
▁استخدم	-10.9018
▁lugares	-10.9018
NING	-10.9018
▁descubr	-10.9023
▁opinión	-10.9026
ويل	-10.9028
تحكم	-10.9028
▁représente	-10.9033
huile	-10.9034
▁معاها	-10.9034
rum	-10.9036
▁courant	-10.9036
▁QU	-10.9039
ál	-10.9043
▁probablemente	-10.9053
▁aplica	-10.9054
▁ياخد	-10.9057
▁difficulté	-10.9057
▁تفهم	-10.9058
▁descripción	-10.9059
▁للن	-10.9061
▁فلو	-10.9065
ILE	-10.9065
▁فانت	-10.9068
▁AMERICAN	-10.9069
▁وقلت	-10.907
▁الطريق	-10.9072
▁adapta	-10.9073
▁يجيب	-10.9073
chant	-10.9074
دخول	-10.9075
cía	-10.9078
شهر	-10.9079
▁comprend	-10.9089
▁HOUSE	-10.9089
▁Ni	-10.9092
▁الحين	-10.9094
LF	-10.9096
عبر	-10.9096
pg	-10.9097
EXP	-10.9104
▁يرجع	-10.9104
▁الفلوس	-10.9107
▁الاقتصاد	-10.9109
بح	-10.9109
▁منا	-10.9109
طبع	-10.911
▁bal	-10.911
غة	-10.9111
▁سمعت	-10.9112
▁différent	-10.9115
▁bois	-10.9118
▁ART	-10.9118
▁partes	-10.9119
tw	-10.9119
tons	-10.9119
▁française	-10.9122
uj	-10.9123
▁seis	-10.9123
▁العامة	-10.9125
وغ	-10.9126
▁sector	-10.9126
toire	-10.9128
▁jóvenes	-10.9129
erta	-10.9137
▁عندكم	-10.9137
▁siglo	-10.9137
▁وعن	-10.9138
▁PLAN	-10.9139
زود	-10.9142
رغب	-10.9142
▁acceso	-10.9145
▁FREE	-10.9146
▁bras	-10.9151
▁matériel	-10.9153
▁الخبر	-10.9154
puesto	-10.9155
imo	-10.9157
▁LEVEL	-10.9161
▁dites	-10.9161
amiento	-10.9164
▁DECIDED	-10.9164
تحر	-10.9166
▁teint	-10.9168
▁الخاص	-10.9168
GS	-10.9169
▁فنان	-10.9169
فتر	-10.9169
▁cuento	-10.9169
▁sab	-10.9169
▁HAPPENS	-10.9169
▁مادة	-10.9171
▁PROBLEMS	-10.9176
▁voix	-10.9177
▁premiers	-10.9178
▁mange	-10.918
▁manos	-10.9183
XE	-10.9184
▁justamente	-10.9185
▁احت	-10.9187
roba	-10.9188
▁الكويت	-10.919
▁ويمكن	-10.9195
▁TEST	-10.9197
eta	-10.92
tien	-10.9201
IOUS	-10.9201
▁DEEP	-10.9203
mètre	-10.9204
ZL	-10.9206
▁حصلت	-10.9207
▁DISEASE	-10.9209
DD	-10.9213
PP	-10.9214
▁éviter	-10.9216
▁الكا	-10.9216
▁الرواية	-10.9218
NN	-10.9218
événement	-10.922
سخ	-10.9222
▁chef	-10.9223
▁seront	-10.9223
RIES	-10.9224
▁disait	-10.9224
ifier	-10.9226
جهز	-10.9226
▁معاكم	-10.9228
▁PERSONAL	-10.9232
▁ACROSS	-10.9233
▁obligé	-10.9233
▁مص	-10.9235
حات	-10.9235
ena	-10.9237
▁grado	-10.9247
▁الدرس	-10.9247
▁حسيت	-10.9248
▁سوريا	-10.9248
▁business	-10.9249
oA	-10.925
▁الأستاذ	-10.9251
نام	-10.9251
ريب	-10.9253
▁الذ	-10.9254
نفع	-10.9258
WARD	-10.9258
auteur	-10.9258
▁الارض	-10.926
▁continu	-10.926
AIN	-10.9261
aban	-10.9263
▁الرياض	-10.9263
نط	-10.9263
▁note	-10.9267
▁aplicar	-10.9268
▁SW	-10.927
▁ومت	-10.9271
avant	-10.9272
▁communauté	-10.9273
▁فلسطين	-10.9273
تقدم	-10.9275
dición	-10.928
وفي	-10.928
ifica	-10.9281
▁fasse	-10.9284
▁loi	-10.9289
▁intenta	-10.9292
pha	-10.9293
qM	-10.9294
EQU	-10.9294
بص	-10.9296
▁exclu	-10.9298
ريحة	-10.9305
▁الشمس	-10.9308
▁البرو	-10.9309
▁dispositivo	-10.9314
▁ambiente	-10.9314
▁المستوى	-10.9314
abri	-10.9315
▁تعطي	-10.9317
▁PRI	-10.9318
▁vaut	-10.9321
▁تلك	-10.9321
▁cré	-10.9322
▁LEAD	-10.9322
OSE	-10.9322
dito	-10.9323
▁الصلاة	-10.9323
▁معظم	-10.9325
GEN	-10.9325
▁population	-10.933
▁الرحمن	-10.933
▁لش	-10.9333
améliorer	-10.9336
▁القر	-10.9337
ologie	-10.934
GN	-10.9341
▁وست	-10.9344
II	-10.9344
▁neuro	-10.9344
باط	-10.9346
▁résultats	-10.9352
rada	-10.9353
Europe	-10.9355
▁POSSIBLE	-10.9355
▁herramientas	-10.9357
▁historias	-10.9362
▁المعا	-10.9362
moi	-10.9362
▁بطول	-10.9363
▁recommande	-10.9363
▁الراجل	-10.9363
lina	-10.9364
▁cru	-10.9365
▁CITY	-10.9366
▁look	-10.9366
ومي	-10.9366
▁pesar	-10.9366
isant	-10.9369
▁siquiera	-10.9371
▁المستقبل	-10.9372
BL	-10.9372
ouverture	-10.9373
▁YES	-10.9374
cle	-10.9376
▁sauf	-10.9376
OO	-10.9378
قلل	-10.9379
▁artista	-10.9379
▁كأن	-10.938
▁Qui	-10.9382
▁TURN	-10.9384
▁précis	-10.9386
▁sorti	-10.9386
cw	-10.9387
▁preguntar	-10.9388
▁proyectos	-10.9392
wI	-10.9392
فخ	-10.9393
▁لغة	-10.9396
xQ	-10.9401
ZQ	-10.9401
▁للس	-10.9402
▁ALMOST	-10.9404
حر	-10.941
▁soleil	-10.9412
▁دماغ	-10.9413
▁création	-10.9416
après	-10.9416
rito	-10.9418
bb	-10.9419
WAY	-10.9419
▁SEEN	-10.9419
▁voz	-10.942
▁thème	-10.942
▁HALF	-10.942
ذاكر	-10.9421
lio	-10.9421
ef	-10.9421
ábamos	-10.9428
▁FEAR	-10.9429
▁أين	-10.943
CENT	-10.9432
▁combina	-10.9437
▁CANCER	-10.9445
رؤية	-10.9446
قصر	-10.9448
gro	-10.945
appareil	-10.9453
▁تشتري	-10.946
spect	-10.946
▁pregunt	-10.9461
▁STAND	-10.9461
▁الغرب	-10.9465
▁موجودين	-10.9467
icio	-10.9467
▁Ja	-10.9468
CG	-10.947
HR	-10.947
ifié	-10.9471
مرأة	-10.9476
Vi	-10.9477
▁CULTURE	-10.9478
▁oye	-10.948
▁tenían	-10.948
▁SPEAK	-10.948
يعة	-10.9481
▁عدم	-10.9481
ونه	-10.9486
فص	-10.9486
فد	-10.9488
bio	-10.9491
▁mantener	-10.9492
▁dormir	-10.9492
bI	-10.9503
▁caja	-10.9503
ناسب	-10.9504
▁material	-10.9505
▁rapide	-10.9508
tran	-10.9508
ذن	-10.9509
▁تحصل	-10.9509
▁pensée	-10.951
émotion	-10.9523
bul	-10.9523
علان	-10.9523
Bl	-10.9527
▁Per	-10.9529
▁posibilidad	-10.953
ting	-10.9532
▁prochain	-10.9534
▁PAY	-10.9537
نها	-10.9542
▁acto	-10.9542
▁code	-10.9545
EW	-10.9547
aspect	-10.9547
CV	-10.9548
▁vende	-10.9548
▁تيجي	-10.9548
évo	-10.9552
lita	-10.9552
achète	-10.9552
▁Ga	-10.9555
▁الصف	-10.9557
▁البط	-10.956
▁معناها	-10.9568
CT	-10.9571
▁clients	-10.9572
lg	-10.9572
▁عربي	-10.9574
obs	-10.9579
▁llena	-10.958
سون	-10.9582
ombre	-10.9582
dk	-10.9583
▁mettez	-10.9584
▁decisiones	-10.9586
Zq	-10.9587
▁resultado	-10.9588
JJ	-10.9589
▁للع	-10.9593
▁ستكون	-10.9594
▁crée	-10.9596
▁عربية	-10.9596
EG	-10.9598
▁vuelve	-10.9603
▁الجزائر	-10.9603
issant	-10.9605
▁هيبقى	-10.9606
mul	-10.9608
▁inspira	-10.9609
▁التحدي	-10.961
▁integra	-10.9611
▁sencilla	-10.9611
بغى	-10.9613
▁regardez	-10.9617
AK	-10.9617
▁تكن	-10.962
زور	-10.9621
كاب	-10.9621
ناقش	-10.9624
▁uniquement	-10.9628
aventure	-10.9629
Lk	-10.963
▁INTERESTING	-10.963
▁المهمة	-10.9632
▁calor	-10.9633
rial	-10.9636
▁costa	-10.964
▁peso	-10.9642
▁aquellos	-10.9643
vas	-10.9643
▁Está	-10.9647
issent	-10.965
tá	-10.9651
sw	-10.9655
فه	-10.9658
إ	-10.966
▁rentre	-10.966
tA	-10.9665
سات	-10.9666
▁page	-10.9667
▁decisión	-10.967
▁نجاح	-10.9671
▁parfums	-10.9672
▁FRIEND	-10.9672
ريك	-10.9672
▁servicio	-10.9674
▁celuici	-10.9675
▁حتة	-10.9677
ضطر	-10.9679
asse	-10.9682
▁recette	-10.9688
▁ferme	-10.9688
tter	-10.9688
▁ونص	-10.9692
▁candidat	-10.9695
▁المركز	-10.9696
▁PAST	-10.9697
▁utile	-10.9698
▁الأيام	-10.9699
▁UNTIL	-10.9703
▁Ka	-10.9704
CRE	-10.9705
▁tombe	-10.9706
▁أغلب	-10.9707
▁revenu	-10.9712
▁عاوز	-10.9712
▁touche	-10.9714
▁sert	-10.9714
rY	-10.9723
▁يقولك	-10.9724
ترا	-10.9727
▁quasiment	-10.9729
▁pouce	-10.9729
▁الماضي	-10.9729
▁HEARD	-10.9734
▁العملية	-10.9735
▁المثال	-10.9736
▁professeur	-10.9737
تقبل	-10.9739
▁المصرية	-10.9743
حظ	-10.9743
wo	-10.9747
طير	-10.975
Ic	-10.9753
▁cerebro	-10.9754
▁parcours	-10.9754
▁narra	-10.9754
▁colores	-10.9755
تأثر	-10.9756
▁يبدأ	-10.9757
▁ressemble	-10.9759
▁WITHIN	-10.976
▁vea	-10.9762
▁قضية	-10.9768
pw	-10.9769
wA	-10.9773
▁المقطع	-10.9773
TON	-10.9774
كذب	-10.9776
qU	-10.9776
▁البنت	-10.9776
▁resolver	-10.978
▁MET	-10.9782
▁graba	-10.9783
▁SAYS	-10.9784
tY	-10.9786
▁posé	-10.9787
▁cartes	-10.9787
▁مستحيل	-10.9789
taire	-10.9791
▁personaje	-10.9791
▁mains	-10.9792
▁communication	-10.9797
▁preocupa	-10.9797
▁eje	-10.98
XX	-10.98
▁MONTHS	-10.9805
▁وزي	-10.9805
▁habéis	-10.9805
uro	-10.9806
▁بالع	-10.9806
مفهوم	-10.9806
▁servi	-10.9806
ologique	-10.9811
دود	-10.9812
▁ولل	-10.9815
▁estudiantes	-10.9815
▁فأنت	-10.9816
FOR	-10.9821
▁administra	-10.9825
▁escucha	-10.9828
قوى	-10.9828
zj	-10.983
oral	-10.9835
Kk	-10.9835
▁levanta	-10.9838
▁eventos	-10.9838
▁التصوير	-10.984
▁وقتها	-10.984
وضع	-10.9845
lica	-10.9845
كتاب	-10.9847
▁البشرة	-10.9848
▁humaine	-10.985
ائح	-10.9851
eff	-10.9852
▁غزة	-10.9852
idi	-10.9853
Bc	-10.9854
▁أمي	-10.9856
DES	-10.9857
ret	-10.9858
▁ترجع	-10.9858
MON	-10.9859
▁bri	-10.986
mk	-10.9862
▁Com	-10.9862
▁يخلي	-10.9864
▁intentar	-10.9864
اشر	-10.9871
tv	-10.9871
▁العشر	-10.9875
حكاية	-10.9875
▁IMP	-10.9875
▁médica	-10.9883
▁THOUGH	-10.9885
dI	-10.9888
▁abrir	-10.989
مام	-10.9892
اعد	-10.9895
تبه	-10.9897
▁قيمة	-10.9898
vant	-10.9899
▁média	-10.99
▁étudiants	-10.99
▁pega	-10.9904
▁كف	-10.9905
▁comen	-10.9906
▁الوطني	-10.9908
▁podamos	-10.9908
examen	-10.9908
رحم	-10.991
▁QUESTIONS	-10.9911
▁دقيقة	-10.9911
LV	-10.9914
مور	-10.9916
▁RELATIONSHIP	-10.9917
▁remo	-10.9918
ليش	-10.9923
▁طويل	-10.9926
lf	-10.9926
▁تجي	-10.9928
▁شخصيا	-10.9933
NQ	-10.9934
فان	-10.9935
WL	-10.9937
ides	-10.9939
JA	-10.994
ender	-10.994
▁شفنا	-10.9943
لج	-10.9943
tric	-10.9946
▁habilidades	-10.9948
اها	-10.9949
▁المج	-10.995
▁LOOKED	-10.995
dita	-10.9951
▁EARTH	-10.9951
▁أشخاص	-10.9951
▁date	-10.9952
zi	-10.9953
RV	-10.9958
Tj	-10.9959
▁reçu	-10.996
▁TEAM	-10.996
lA	-10.9961
▁puerta	-10.9962
كاتب	-10.9968
gor	-10.9969
مش	-10.9975
سرع	-10.9975
▁GAME	-10.9978
onde	-10.9984
▁RUN	-10.9985
YQ	-10.9986
▁habían	-10.9989
▁taux	-10.999
سليم	-10.9993
just	-10.9994
▁AMAZING	-10.9995
lF	-10.9997
▁stress	-10.9997
▁العقل	-10.9997
▁أح	-10.9999
▁bande	-11.0002
▁FOCUS	-11.0004
▁lancer	-11.0005
▁últimos	-11.0006
AW	-11.0012
▁BECAME	-11.0012
▁olvide	-11.0012
▁بخير	-11.0013
dw	-11.0015
▁الشكل	-11.0016
أسئلة	-11.0017
▁GROW	-11.0018
▁تقولي	-11.002
▁remercie	-11.0021
شل	-11.0021
AQ	-11.0022
▁moyens	-11.0026
▁IDEAS	-11.0027
▁tuvo	-11.0027
▁DECISION	-11.003
ستثمر	-11.003
tôt	-11.003
▁podríamos	-11.0032
▁online	-11.0032
tina	-11.0037
خذ	-11.0038
▁اكتب	-11.0039
▁COULDN	-11.0044
ector	-11.0045
نصح	-11.0046
▁España	-11.0047
▁contexte	-11.0047
Xq	-11.0049
êtes	-11.0049
XU	-11.0052
▁WORD	-11.0053
ling	-11.0056
▁regla	-11.0057
▁البحث	-11.0058
ADE	-11.0058
لقا	-11.0059
▁juegos	-11.0061
حلل	-11.0062
▁interés	-11.0062
acte	-11.0066
▁sélection	-11.0069
ani	-11.0069
ième	-11.007
▁pen	-11.0072
▁الإعلام	-11.0073
▁cambios	-11.0074
▁المرة	-11.0075
ايت	-11.0077
▁enfoca	-11.0077
▁جميعا	-11.0079
▁لعبة	-11.008
Dg	-11.0082
▁poids	-11.0082
▁حسنا	-11.0083
▁ojos	-11.0084
▁ropa	-11.0084
دات	-11.0087
▁تتكلم	-11.009
▁Además	-11.0091
íamos	-11.0091
▁demanda	-11.0093
▁somme	-11.0093
▁الأشخاص	-11.0094
▁necesidad	-11.0095
متابعين	-11.0096
▁artificial	-11.01
▁crème	-11.01
pec	-11.0101
oci	-11.0102
▁principales	-11.0103
gri	-11.0104
▁comenta	-11.0104
évolution	-11.0105
▁حركة	-11.0106
▁INDIVIDUAL	-11.0109
▁SOMEBODY	-11.0109
▁américain	-11.0109
قاطع	-11.0109
var	-11.011
▁primeros	-11.0111
وضح	-11.0113
▁pelo	-11.0114
ctivo	-11.0115
▁البنات	-11.0116
approche	-11.0118
سيط	-11.0118
OF	-11.0122
▁chiffre	-11.0126
EI	-11.013
▁finir	-11.0131
▁محتوى	-11.0135
▁قاعدين	-11.0137
iti	-11.0137
▁métiers	-11.0137
قود	-11.0138
▁fla	-11.0138
▁wa	-11.014
▁نستطيع	-11.014
كيد	-11.0141
▁اللا	-11.0142
▁films	-11.0143
▁cine	-11.0146
▁تعالوا	-11.0147
فز	-11.0148
ائب	-11.0152
▁EVERYBODY	-11.0153
▁completo	-11.0153
لط	-11.016
mus	-11.0161
lU	-11.0161
▁SINCE	-11.0162
▁بقي	-11.0163
Wi	-11.0163
▁GOES	-11.0163
Bk	-11.0164
infini	-11.0166
▁DIFFERENCE	-11.017
CHI	-11.0172
▁bloque	-11.0172
bM	-11.0176
yendo	-11.0177
▁mag	-11.0177
illes	-11.0178
▁الجر	-11.0178
▁CHOICE	-11.0179
zvous	-11.0181
قفل	-11.0182
oY	-11.0183
▁الهو	-11.0188
▁تنزل	-11.0189
▁أصبح	-11.0189
نسى	-11.019
▁الحي	-11.0195
عر	-11.0195
▁اكبر	-11.0195
▁liberté	-11.0197
▁Merci	-11.0198
▁Sur	-11.0199
▁امت	-11.0204
RQ	-11.0204
▁pensez	-11.0206
▁source	-11.0206
لز	-11.0208
ej	-11.0211
▁الموجود	-11.0211
▁ultra	-11.0212
▁EAT	-11.0212
▁صباح	-11.0215
éco	-11.0216
▁TEACHER	-11.0219
nique	-11.022
▁عبدال	-11.0221
▁económica	-11.0224
ff	-11.0225
▁والك	-11.0226
CQ	-11.0226
▁dure	-11.0234
AMP	-11.0235
سول	-11.0239
ection	-11.024
▁أساسي	-11.024
نقص	-11.0243
▁بيحصل	-11.0246
▁الكور	-11.0246
صفات	-11.025
▁HISTORY	-11.025
▁قليل	-11.0252
▁STA	-11.0253
ينج	-11.0258
▁images	-11.0259
▁الموقع	-11.026
ROW	-11.026
عز	-11.026
ava	-11.0261
▁ويكون	-11.0274
▁عشرين	-11.0276
▁nombreux	-11.0281
DQ	-11.0282
▁RESULT	-11.0286
قطة	-11.0286
▁WIN	-11.0287
zz	-11.0287
ساوي	-11.0292
▁format	-11.0293
▁llegó	-11.0295
▁teniendo	-11.0296
▁médico	-11.0304
خمس	-11.031
▁aprend	-11.031
affi	-11.0311
entend	-11.0312
▁passage	-11.0315
achat	-11.0316
حا	-11.0319
ZY	-11.032
tino	-11.032
Gt	-11.0322
▁TAKING	-11.0322
▁marcas	-11.0323
▁beauté	-11.0327
▁أقدر	-11.0328
أماكن	-11.0329
حاجة	-11.033
▁DOCTOR	-11.0331
oeuvre	-11.0331
▁الجانب	-11.0334
غطي	-11.0334
▁notes	-11.0337
▁título	-11.034
▁الحقيقي	-11.034
▁terrain	-11.0341
▁clases	-11.0343
▁قلبي	-11.0343
▁منتخب	-11.0347
خوف	-11.0348
ORE	-11.0349
IZED	-11.0349
▁permettent	-11.0351
▁فيما	-11.0352
▁plazo	-11.0353
▁بينهم	-11.0353
▁ALLOW	-11.0356
ang	-11.0357
organisation	-11.0358
▁CONVERSATION	-11.0358
▁investigación	-11.0358
▁stratégie	-11.0358
▁رجال	-11.0359
essaye	-11.0365
▁peor	-11.0367
▁COMPUTER	-11.0367
يسي	-11.0368
بون	-11.037
mica	-11.0373
off	-11.0375
▁sentiment	-11.0376
▁rare	-11.0376
▁التح	-11.0378
▁بيك	-11.0378
▁coche	-11.0383
صلح	-11.0384
▁pièces	-11.0386
QY	-11.0387
▁معها	-11.0389
▁forte	-11.039
ACH	-11.039
▁BUILDING	-11.0392
Rg	-11.0394
▁vouloir	-11.0394
vM	-11.0399
uvre	-11.0399
▁filles	-11.0402
▁radio	-11.0402
▁capítulo	-11.0403
▁satisf	-11.0403
université	-11.0404
▁بحاجة	-11.0404
tait	-11.0405
▁maestro	-11.0406
▁payer	-11.041
هندس	-11.041
oubliez	-11.0415
▁emocional	-11.0415
ísima	-11.0417
▁outils	-11.0417
▁joli	-11.042
allais	-11.0422
▁يصل	-11.0423
ستان	-11.0426
yw	-11.0428
▁familiar	-11.0428
gré	-11.0431
▁frais	-11.0433
▁الرقم	-11.0433
▁comportement	-11.0434
ati	-11.0435
▁الدو	-11.0435
aider	-11.044
ession	-11.0442
▁اللون	-11.0442
IZE	-11.0443
OUND	-11.0444
ITE	-11.0444
▁قدرت	-11.0445
Lm	-11.0445
▁herramienta	-11.0446
qua	-11.0446
▁وراح	-11.0448
▁económico	-11.0449
gie	-11.045
▁moda	-11.0453
wU	-11.0456
▁combien	-11.0458
▁producción	-11.0458
VM	-11.0464
خبار	-11.0464
▁gustan	-11.0467
▁contacto	-11.0467
▁EXIST	-11.0468
▁recon	-11.047
▁المدن	-11.0473
فرض	-11.0473
association	-11.0476
▁الال	-11.0478
▁valores	-11.0479
▁أل	-11.0479
▁mov	-11.0481
▁voulu	-11.0485
▁menor	-11.0487
▁chicas	-11.0488
▁ISN	-11.049
▁aporta	-11.0493
▁COUNTRIES	-11.0494
▁crise	-11.0498
han	-11.0499
▁pousse	-11.05
▁ملك	-11.0501
اكت	-11.0502
▁político	-11.0503
▁GLOBAL	-11.0503
▁بابا	-11.0507
ago	-11.0509
uQ	-11.0512
▁التفاصيل	-11.0513
gg	-11.0515
▁Ben	-11.0516
expert	-11.0526
نى	-11.053
▁muestra	-11.0532
VEN	-11.0533
عوا	-11.0533
▁البشر	-11.054
▁vêtements	-11.0543
▁الجرس	-11.0543
box	-11.0544
▁السيارة	-11.0544
▁nécessaire	-11.0555
▁الكرة	-11.0555
EQ	-11.056
AA	-11.056
▁إنو	-11.0561
بري	-11.0561
▁propos	-11.0561
▁générale	-11.0563
▁parmi	-11.0563
جتمع	-11.0564
ATIVE	-11.0565
▁production	-11.0568
▁يساعد	-11.0571
▁culpa	-11.0572
▁distintas	-11.0576
▁fabrica	-11.0577
وارد	-11.0579
▁etapa	-11.058
gén	-11.0582
▁route	-11.0584
▁حسين	-11.0585
▁IMPACT	-11.0586
▁muerte	-11.0586
▁evitar	-11.0587
▁DRIVE	-11.0588
▁بتشوف	-11.0588
▁وعندما	-11.0591
▁droite	-11.0593
▁احمد	-11.0593
Gh	-11.0594
▁importancia	-11.0596
▁الثالثة	-11.0598
tract	-11.0599
▁نروح	-11.0604
annonce	-11.0605
ov	-11.0605
habit	-11.061
بقوا	-11.061
ouvre	-11.0617
▁سبيل	-11.0617
يئة	-11.0619
mático	-11.0622
▁سياسي	-11.0622
Bf	-11.0624
▁أعمال	-11.0624
▁الوحيد	-11.0626
تفاعل	-11.0626
▁تحكي	-11.0629
راك	-11.0635
cua	-11.0636
▁règles	-11.0639
▁نريد	-11.0641
▁يشتغل	-11.0642
▁raconter	-11.0643
▁الامر	-11.0644
▁بقدر	-11.0647
▁construire	-11.0647
▁généralement	-11.0647
rro	-11.0647
هداف	-11.0648
تأخر	-11.0653
nf	-11.0653
▁جيت	-11.0654
rate	-11.0659
▁detrás	-11.066
▁devrait	-11.066
▁الهند	-11.0664
gU	-11.0665
فير	-11.0667
طين	-11.0671
▁objets	-11.0671
▁فلما	-11.0671
▁llamado	-11.0673
▁شوفوا	-11.0673
▁ماما	-11.0673
▁parole	-11.0674
PRESS	-11.0675
jV	-11.0676
لقي	-11.0677
▁pourrais	-11.0679
▁FIGURE	-11.0679
▁SPEND	-11.068
TN	-11.068
▁معاي	-11.068
EU	-11.0684
▁sup	-11.0684
عظيم	-11.0685
puesta	-11.0688
héro	-11.0688
▁DIFFICULT	-11.0688
▁Bar	-11.0689
▁leído	-11.0689
▁البعض	-11.0689
nelle	-11.0692
kM	-11.0694
▁تساعد	-11.0695
auto	-11.0697
▁caméra	-11.0698
▁النادي	-11.0698
▁نقوم	-11.07
▁طفل	-11.0702
▁techniques	-11.0704
Lo	-11.0705
dig	-11.0706
كار	-11.0706
▁اقتصاد	-11.0707
▁prop	-11.0711
▁قديم	-11.0712
▁garanti	-11.0714
▁vécu	-11.0717
▁لمدة	-11.0719
▁finalmente	-11.072
TL	-11.0721
حاضر	-11.0723
▁pire	-11.0725
▁llegado	-11.0725
▁estudia	-11.0726
igno	-11.0729
Jc	-11.0731
▁corta	-11.0731
▁اختيار	-11.0731
▁وكنت	-11.0735
▁MODEL	-11.0735
▁sécurité	-11.0735
▁PARTICULAR	-11.0735
▁PLANET	-11.0735
▁DEAL	-11.0738
▁seres	-11.0739
حان	-11.0739
édition	-11.0741
▁riche	-11.0746
vq	-11.0746
▁desarrolla	-11.0748
assi	-11.0753
▁situaciones	-11.0754
▁حبيبي	-11.0754
UG	-11.0756
▁découvert	-11.076
زك	-11.0761
▁físico	-11.0763
▁والتي	-11.0766
قلق	-11.0769
▁تصور	-11.0771
▁FOLLOW	-11.0772
▁LEAVE	-11.0772
rE	-11.0775
▁actividades	-11.0777
▁traduc	-11.0778
صغر	-11.078
▁naturel	-11.078
▁STUFF	-11.0782
▁froid	-11.0782
lQ	-11.0783
صناع	-11.0786
▁بيعرف	-11.0786
ponga	-11.0787
illon	-11.0788
qQ	-11.079
icos	-11.0791
▁gouvernement	-11.0791
خطط	-11.0791
ever	-11.0792
atelier	-11.0793
▁REST	-11.0794
وطن	-11.0797
RG	-11.0799
جيش	-11.0799
actu	-11.0799
▁مض	-11.08
▁crítica	-11.0801
KW	-11.0802
xE	-11.0806
hk	-11.0809
▁WEEK	-11.081
nQ	-11.081
▁solución	-11.081
▁EXPECT	-11.081
▁personnellement	-11.0813
▁SIGN	-11.0814
دون	-11.0814
▁justo	-11.0822
gA	-11.0822
▁réseau	-11.0824
Zc	-11.0825
▁contente	-11.0826
▁complexe	-11.0829
▁respira	-11.0829
▁ingreso	-11.0829
▁baisse	-11.0831
TIM	-11.0838
mont	-11.0838
▁Salut	-11.0839
طق	-11.0839
▁غريب	-11.0843
ATH	-11.0844
▁هكذا	-11.0848
▁DEVELOP	-11.085
▁résultat	-11.0851
▁هوا	-11.0852
Sk	-11.0857
▁plateforme	-11.0857
▁limita	-11.0858
▁سهلة	-11.0859
غلط	-11.086
▁garde	-11.0862
▁ندخل	-11.0862
▁actividad	-11.0863
▁SUB	-11.0864
mbre	-11.0865
لحق	-11.0865
▁patient	-11.0871
ناش	-11.0871
ظلم	-11.0871
▁NEEDED	-11.0872
rent	-11.0873
▁probablement	-11.0876
جول	-11.0879
▁يكونوا	-11.0881
▁غريبة	-11.0883
▁القادمة	-11.0883
time	-11.0885
essentiel	-11.0885
apprendre	-11.0885
تفق	-11.0886
▁اعت	-11.0886
▁réel	-11.089
▁raisons	-11.089
fI	-11.0891
LZ	-11.0891
ZV	-11.0892
▁fuente	-11.0895
▁زيت	-11.0896
▁malgré	-11.0898
Ig	-11.0898
outil	-11.0899
بطال	-11.09
mico	-11.0901
سيم	-11.0902
▁الاشتراك	-11.0905
▁وجهة	-11.0907
Pw	-11.0907
Qg	-11.0908
راحل	-11.091
قطاع	-11.0911
▁teníamos	-11.0912
▁ENTIRE	-11.0915
▁lenguaje	-11.0915
▁nacional	-11.0915
▁mission	-11.0916
▁PASS	-11.0916
▁تأخذ	-11.0917
▁solutions	-11.0917
حال	-11.0917
ديد	-11.0918
▁شديد	-11.0923
▁DIRECT	-11.0924
▁الليل	-11.0925
ww	-11.0926
▁يستطيع	-11.0926
torio	-11.0927
▁اوكي	-11.0929
عاطف	-11.0933
▁يعيش	-11.0933
▁Esa	-11.0937
aise	-11.0938
بغ	-11.094
▁correcta	-11.094
amener	-11.0941
▁يقدم	-11.0943
▁llamar	-11.0944
corp	-11.0945
ordinateur	-11.0947
▁تسأل	-11.0947
▁صفحة	-11.0948
▁تقرأ	-11.0948
Hi	-11.0952
▁THEMSELVES	-11.0953
▁tarea	-11.0955
▁planta	-11.0958
▁impacto	-11.096
▁raconte	-11.0961
isée	-11.0961
▁بالقناة	-11.0962
▁مسؤول	-11.0964
▁semanas	-11.0967
▁تفكر	-11.0968
▁fac	-11.0968
Zx	-11.0969
ça	-11.097
▁الكبيرة	-11.0971
▁تجرب	-11.0972
▁startup	-11.0972
▁حديث	-11.0974
IGN	-11.0976
▁bouge	-11.0977
▁venga	-11.0983
▁الأردن	-11.0984
▁ocupa	-11.0984
▁monter	-11.0985
▁جيدة	-11.0987
LOG	-11.0988
ايف	-11.099
iU	-11.0993
▁frère	-11.0994
▁الكون	-11.0995
▁parc	-11.0996
▁والذي	-11.0997
▁celles	-11.0998
جسد	-11.0998
ريض	-11.1
▁التطبيق	-11.1
▁structure	-11.1001
▁فإذا	-11.1001
▁جهاز	-11.1001
écouter	-11.1006
ئات	-11.1006
investir	-11.1006
▁émotions	-11.1007
▁القلب	-11.1007
CON	-11.1019
فون	-11.1019
▁recuerda	-11.102
▁CAUSE	-11.102
▁recordar	-11.1021
▁مجلس	-11.1021
▁MUST	-11.1023
tero	-11.1023
▁tele	-11.1025
▁نست	-11.1027
gée	-11.1029
▁AFRICA	-11.103
مبر	-11.1031
▁capaz	-11.1032
▁profit	-11.1033
▁construir	-11.1034
شترك	-11.1034
influence	-11.1039
▁celular	-11.1039
▁changé	-11.1039
▁Creo	-11.104
▁TOP	-11.104
▁separa	-11.1042
▁أشهر	-11.1043
▁بشوف	-11.1043
▁señal	-11.1044
opération	-11.1046
▁خايف	-11.1047
▁والق	-11.1048
▁belles	-11.105
▁بحس	-11.1051
PLE	-11.1054
▁STATES	-11.1054
▁fera	-11.1054
▁sonido	-11.1056
▁COUPLE	-11.1059
▁comercial	-11.1059
لاش	-11.106
teau	-11.1063
▁concerne	-11.1069
▁بيد	-11.107
▁traigo	-11.107
خس	-11.1071
endant	-11.1072
▁الوطن	-11.1073
▁clientes	-11.1074
▁RISK	-11.1075
▁أسبوع	-11.1078
NER	-11.108
▁نرى	-11.1082
OQ	-11.1086
حوا	-11.1086
حاكم	-11.1086
▁emociones	-11.1086
وريا	-11.1087
zg	-11.1088
▁velocidad	-11.1088
attaque	-11.1088
▁ينزل	-11.109
عمر	-11.1093
▁client	-11.1093
▁souci	-11.1095
▁Tra	-11.1095
▁marques	-11.1095
▁REALIZED	-11.1096
▁pesa	-11.1098
nA	-11.1099
▁الرجال	-11.1099
▁رحت	-11.1099
▁AGAINST	-11.11
▁FUN	-11.11
POL	-11.11
▁gérer	-11.1102
▁funda	-11.1102
▁LAW	-11.1103
SQ	-11.1104
▁Em	-11.1106
▁positif	-11.1107
▁móvil	-11.1107
▁género	-11.1107
ach	-11.1108
ío	-11.1109
▁vean	-11.1112
▁رسول	-11.1112
▁بنقول	-11.1116
▁invito	-11.1117
▁suivi	-11.1117
▁necesitas	-11.1117
KU	-11.112
طريق	-11.1122
▁référence	-11.1127
▁التش	-11.1129
ديل	-11.113
▁شايفين	-11.1133
▁génération	-11.1133
لر	-11.1135
▁dég	-11.1135
▁conditions	-11.1135
▁decirle	-11.1135
عالم	-11.1136
▁باللغة	-11.1136
▁condiciones	-11.1136
▁Avec	-11.1137
غز	-11.1137
▁crisis	-11.1137
▁enorme	-11.1137
▁تعتبر	-11.1139
▁notion	-11.1143
▁doy	-11.1144
▁يوسف	-11.1146
▁اسمع	-11.115
فوا	-11.1153
uJ	-11.1155
▁hein	-11.1155
▁المؤ	-11.1155
▁contrat	-11.1156
▁HOURS	-11.1156
▁empezó	-11.1156
▁النار	-11.1162
▁innov	-11.1163
ياس	-11.1163
▁Google	-11.1166
▁máquina	-11.1166
▁course	-11.1166
▁creado	-11.1169
▁professionnelle	-11.1171
▁diría	-11.1171
py	-11.1172
lumin	-11.1173
ائك	-11.1173
▁six	-11.1173
▁record	-11.1173
avoue	-11.1175
فاء	-11.1177
rw	-11.1177
سلاح	-11.1179
ores	-11.118
▁احب	-11.1184
▁esfuerzo	-11.1185
▁تصوير	-11.1185
Rf	-11.1195
دد	-11.1195
▁الأقل	-11.1201
FM	-11.1202
▁ثالث	-11.1205
▁محدش	-11.1205
▁produce	-11.1206
▁عمره	-11.1208
▁الإن	-11.1208
▁estudios	-11.1213
سرعة	-11.1214
▁olvida	-11.1215
▁animaux	-11.1215
نفس	-11.1215
▁BASED	-11.1218
▁عملنا	-11.122
▁carta	-11.1221
wM	-11.1221
▁HAPPY	-11.1224
ZM	-11.1226
▁suma	-11.1228
▁histoires	-11.1229
حيوان	-11.1231
▁consciente	-11.1231
▁cliente	-11.1231
▁presentar	-11.1232
▁peine	-11.1234
▁COMPANY	-11.1234
▁mémoire	-11.1234
▁Esper	-11.1235
▁لغ	-11.1237
KJ	-11.1239
مواضيع	-11.124
▁العادي	-11.1242
IZ	-11.1242
ther	-11.1242
Ph	-11.1245
▁progres	-11.1246
▁ferai	-11.1246
top	-11.1248
IX	-11.1248
cien	-11.1251
كاف	-11.1253
▁verde	-11.1253
▁مرض	-11.1253
▁Puede	-11.1254
▁كام	-11.1257
▁mélange	-11.1264
▁معاهم	-11.1264
▁يحاول	-11.1266
SN	-11.1268
ربح	-11.127
▁mesa	-11.127
قاتل	-11.1271
▁dimension	-11.1274
▁recibir	-11.1274
▁fruit	-11.1274
▁zéro	-11.1275
▁características	-11.1276
▁يحدث	-11.1278
▁medios	-11.1279
▁réalisé	-11.1284
abonne	-11.1284
فول	-11.1286
▁جاية	-11.1286
ستحق	-11.1288
▁SIX	-11.1288
▁blanco	-11.1288
▁فلان	-11.1291
ضاف	-11.1293
▁الأعمال	-11.1293
▁costo	-11.1294
▁pongo	-11.1297
▁resta	-11.1297
▁عمري	-11.1297
واصل	-11.1298
▁STAY	-11.1299
ZJ	-11.13
GL	-11.1301
▁déchet	-11.1304
achet	-11.1307
▁مهتم	-11.1307
▁لحال	-11.1307
▁حاب	-11.1309
خان	-11.1309
عان	-11.131
▁أبي	-11.1311
▁compañía	-11.1313
▁préfère	-11.1313
▁Tenemos	-11.1313
cule	-11.1314
▁opciones	-11.1314
روج	-11.1315
▁cero	-11.1315
nj	-11.1316
qb	-11.1319
Op	-11.132
Rk	-11.1321
king	-11.1321
▁concret	-11.1322
mX	-11.1322
▁voulait	-11.1323
▁coeur	-11.1323
ori	-11.1325
▁normalement	-11.1327
▁أصل	-11.1328
▁banco	-11.1329
وظ	-11.1329
pj	-11.133
▁prof	-11.1331
▁وإحنا	-11.1333
har	-11.1335
UMP	-11.1335
ضخم	-11.1336
▁حلقات	-11.1338
▁أخبر	-11.134
▁interior	-11.1343
▁norma	-11.1344
زام	-11.1344
iY	-11.1347
▁الزمن	-11.1349
hQ	-11.1349
xA	-11.1352
▁بتاعته	-11.1355
SHIP	-11.1356
حاسب	-11.1357
affaires	-11.1359
ادية	-11.1362
jM	-11.1362
▁civil	-11.1363
▁imágenes	-11.1363
▁cuarto	-11.1363
ديو	-11.1368
▁reconna	-11.1368
ividad	-11.1371
▁Oh	-11.1373
hw	-11.1377
▁match	-11.1378
attendre	-11.1381
cU	-11.1381
▁essayé	-11.1383
ético	-11.1384
CAP	-11.1384
▁relaciones	-11.1384
▁kilo	-11.1386
عارف	-11.1387
▁وعم	-11.1388
سق	-11.1389
برز	-11.1389
فترض	-11.1389
▁sepa	-11.1392
▁contexto	-11.1393
▁cinéma	-11.1393
يء	-11.1394
issement	-11.1402
▁إنما	-11.1405
▁مهما	-11.1405
fk	-11.1407
جان	-11.1407
▁fleur	-11.1408
▁distintos	-11.1409
زبط	-11.141
▁تلعب	-11.141
▁الفني	-11.1411
▁apoyo	-11.1413
ابر	-11.1414
▁أتكلم	-11.1414
fO	-11.1415
▁juge	-11.1415
فئة	-11.142
راب	-11.142
▁usuario	-11.1423
▁dessous	-11.1423
▁WAIT	-11.1424
▁أنتوا	-11.1425
ox	-11.1432
OA	-11.1432
▁concentra	-11.1433
▁déplace	-11.1433
هدف	-11.1434
علق	-11.1437
rey	-11.144
▁مشترك	-11.1442
▁numérique	-11.1443
effort	-11.1443
▁أمور	-11.1446
impos	-11.1447
▁المخ	-11.1449
▁saca	-11.1449
Jz	-11.1453
▁الامتحان	-11.1453
▁BEHAVIOR	-11.1453
▁vitesse	-11.1455
▁instala	-11.1457
ركات	-11.1458
▁coach	-11.1458
étique	-11.1459
tine	-11.146
▁Dieu	-11.1461
▁Sal	-11.1461
▁pública	-11.1463
▁WRITE	-11.1464
▁secteur	-11.1464
▁mirar	-11.1465
▁تأتي	-11.1468
bg	-11.1468
▁المواد	-11.1469
FJ	-11.1472
ssez	-11.1473
▁saga	-11.1477
Ly	-11.1477
قارن	-11.1478
▁presta	-11.1481
▁Muy	-11.1482
égal	-11.1485
pA	-11.1485
▁الرياضة	-11.1486
usion	-11.1491
jU	-11.1492
▁colegio	-11.1494
▁المسيح	-11.1494
بغي	-11.1495
▁variable	-11.1496
تواجد	-11.1496
▁animal	-11.1499
يث	-11.1499
▁enfermedad	-11.15
dE	-11.1507
▁amar	-11.151
▁COST	-11.1513
ç	-11.1515
▁listo	-11.1516
▁moyenne	-11.1517
▁رواية	-11.1518
▁فاتت	-11.1524
▁privé	-11.1524
▁LEG	-11.1525
hE	-11.1526
▁trae	-11.1527
▁suffit	-11.1528
▁مجتمع	-11.1528
graphique	-11.1529
▁informa	-11.1531
ear	-11.1531
▁lucha	-11.154
▁سبعة	-11.154
▁بالش	-11.1544
▁VOICE	-11.1544
▁الطالب	-11.1546
▁BOY	-11.1549
▁vente	-11.1551
▁أصحاب	-11.1552
rón	-11.1552
ZG	-11.1553
▁conserva	-11.1555
▁SAFE	-11.1555
▁rencontrer	-11.1557
▁SEX	-11.1557
▁الفرنسي	-11.1558
سيس	-11.156
NIC	-11.1561
vous	-11.1563
RON	-11.1563
Hg	-11.1564
حمي	-11.1564
▁أربعة	-11.1569
صبر	-11.1569
mI	-11.157
ARD	-11.1573
▁وهل	-11.1573
▁وحش	-11.1575
▁sorprend	-11.1575
▁elegir	-11.1575
▁إل	-11.1575
▁joven	-11.1576
▁préparer	-11.1577
▁أعلى	-11.158
ملة	-11.1583
▁مدير	-11.1586
▁العالمين	-11.1588
▁وأنت	-11.1588
oz	-11.1592
قصة	-11.1592
▁SEA	-11.1594
طم	-11.1594
▁لدرجة	-11.1595
wn	-11.1597
▁INSIDE	-11.1598
écriture	-11.16
▁réfléchir	-11.1605
▁الطاقة	-11.1606
▁lettre	-11.1607
▁guarda	-11.1608
ستور	-11.1609
xx	-11.1611
▁تونس	-11.1611
▁لنفس	-11.1612
ابل	-11.1612
▁الخمس	-11.1614
▁اللحظة	-11.1616
envoyer	-11.1616
▁EXACTLY	-11.1617
Go	-11.1618
▁contrario	-11.1619
PQ	-11.1622
Ww	-11.1623
mment	-11.1624
▁análisis	-11.1626
pJ	-11.1627
▁actuellement	-11.1628
ثار	-11.163
Cc	-11.1631
xf	-11.1633
لنا	-11.1635
زار	-11.1636
▁BEAUTIFUL	-11.1636
جيم	-11.1637
clé	-11.1646
▁perfumes	-11.1647
Yc	-11.1649
WX	-11.165
jY	-11.165
يتك	-11.1652
▁الحم	-11.1653
▁BLACK	-11.1657
▁processus	-11.1657
▁القضية	-11.1657
▁déli	-11.1658
▁complicado	-11.1661
بادر	-11.1664
timent	-11.1673
▁revient	-11.1676
▁DEATH	-11.1678
▁وو	-11.1679
ric	-11.1682
▁suerte	-11.1688
▁tenés	-11.1689
▁أش	-11.169
▁منتج	-11.1692
toi	-11.1692
Fo	-11.1697
▁MANAGE	-11.17
▁الحكم	-11.17
▁Ver	-11.1701
▁سيدنا	-11.1703
tl	-11.1703
▁junto	-11.1704
emi	-11.1705
سيا	-11.1708
entrepreneur	-11.1708
excellent	-11.1708
▁DURING	-11.1708
▁habrá	-11.1711
ستقبل	-11.172
▁quieras	-11.172
cida	-11.1723
TM	-11.1723
▁الأدب	-11.1723
▁recomend	-11.1724
عصب	-11.1726
▁Jean	-11.1729
▁làdessus	-11.1729
سبوع	-11.1731
شام	-11.1731
سكت	-11.1735
nE	-11.1736
عمار	-11.1737
كره	-11.1737
▁cerveza	-11.1739
Hw	-11.174
▁chambre	-11.1741
▁بيطلع	-11.1742
▁للإ	-11.1743
qw	-11.1748
▁repos	-11.1748
اند	-11.1748
▁مفروض	-11.175
▁internacional	-11.175
▁أحكي	-11.1751
xM	-11.1755
تعريف	-11.1756
▁france	-11.1756
الك	-11.1759
▁tocar	-11.176
▁agréable	-11.176
▁العلاقة	-11.176
وتي	-11.176
يكس	-11.1762
▁alumnos	-11.1762
بعين	-11.1763
eros	-11.1765
▁شك	-11.1766
▁نقاط	-11.1769
▁حالي	-11.177
▁MEDIA	-11.1772
لاك	-11.1772
▁poca	-11.1773
▁sensación	-11.1776
▁لغاية	-11.1781
▁واقف	-11.1781
▁الصحيح	-11.1784
FER	-11.1784
Ox	-11.1785
▁اشوف	-11.1787
▁bonita	-11.1789
▁محب	-11.1789
▁catégorie	-11.1791
▁convertir	-11.1791
▁بكتير	-11.1791
▁traer	-11.1793
▁précise	-11.1793
صلاة	-11.1793
حلقة	-11.1794
▁نجم	-11.1796
▁fecha	-11.1796
Bq	-11.1798
▁الرسم	-11.1798
▁أولاد	-11.1798
▁أخد	-11.1799
yQ	-11.1801
▁dispara	-11.1802
أتي	-11.1802
فلس	-11.1803
خم	-11.1805
ابط	-11.1806
▁veis	-11.1807
▁حبيب	-11.1808
ANS	-11.181
ética	-11.181
ium	-11.1811
cado	-11.1812
▁you	-11.1813
UZ	-11.1816
LP	-11.1818
oser	-11.1821
▁tomber	-11.1823
▁pobre	-11.1823
▁hija	-11.1825
▁تصير	-11.1827
▁وقل	-11.1828
▁disfrutar	-11.1828
▁المق	-11.1828
▁الأخيرة	-11.1831
حماس	-11.1831
▁Même	-11.1833
▁PICTURE	-11.1833
▁doivent	-11.1833
رمي	-11.1834
▁tiens	-11.1839
▁STAR	-11.184
ء	-11.1841
▁كلما	-11.1842
▁succès	-11.1843
mM	-11.1846
▁humains	-11.1846
▁بحال	-11.1848
PED	-11.1855
odeur	-11.1857
ثير	-11.186
فتكر	-11.1862
Zk	-11.1865
طيار	-11.1866
bit	-11.1866
توجه	-11.1866
فار	-11.1866
▁شب	-11.1871
▁اشت	-11.1872
▁mauvaise	-11.1873
HQ	-11.1875
▁permitir	-11.1875
▁فجأة	-11.1875
▁rose	-11.1875
LOCK	-11.1879
▁tente	-11.188
QI	-11.188
بيان	-11.1881
PING	-11.1884
forma	-11.1885
سبسكرايب	-11.1885
▁tamaño	-11.1885
▁تغيير	-11.1885
▁ضروري	-11.1886
غاز	-11.1886
تراك	-11.1889
ku	-11.1889
guer	-11.189
pk	-11.1893
▁حقيقي	-11.1893
رشح	-11.1893
سور	-11.1894
▁escala	-11.1894
uses	-11.1896
▁básico	-11.1896
▁extraordinaire	-11.1896
▁travaux	-11.1896
▁والج	-11.1896
زياد	-11.1897
▁مفيد	-11.1898
▁corto	-11.19
ensi	-11.1902
▁بكرة	-11.1907
▁habita	-11.1908
▁vino	-11.1909
▁واش	-11.1909
Lc	-11.1911
قاب	-11.1912
dA	-11.1913
▁عامة	-11.1914
▁grabar	-11.1915
غو	-11.1915
RIS	-11.1916
lais	-11.1917
▁تصل	-11.1919
▁enlace	-11.1919
▁AIR	-11.192
▁valeurs	-11.1921
ضار	-11.1922
▁لديهم	-11.1922
▁الشه	-11.1923
▁rempli	-11.1924
▁FRONT	-11.1927
▁DRUG	-11.1928
▁tratamiento	-11.1929
qA	-11.1929
vj	-11.1931
▁aimer	-11.1932
▁mundial	-11.1938
▁puissance	-11.1938
plo	-11.1939
▁بخ	-11.194
▁HOLD	-11.1941
▁حالك	-11.1943
Lg	-11.1943
▁utilizando	-11.1945
▁conecta	-11.1948
▁población	-11.1949
▁réellement	-11.1951
▁fur	-11.1952
Ve	-11.1952
IU	-11.1953
▁آل	-11.1955
▁غادي	-11.1955
▁jardin	-11.1959
▁llegue	-11.196
▁vivant	-11.1964
▁المشاهد	-11.1965
argument	-11.1966
exercice	-11.1967
▁large	-11.1967
▁مكتوب	-11.197
asso	-11.1971
▁REP	-11.1973
▁السكر	-11.1974
IBLE	-11.1979
ولك	-11.198
▁CLEAR	-11.198
azo	-11.1981
▁وعايز	-11.1981
▁régulièrement	-11.1981
Pq	-11.1982
ject	-11.1983
▁وزير	-11.199
▁artificielle	-11.1991
▁virtual	-11.1991
empêche	-11.1991
▁الانسان	-11.1992
▁الشرق	-11.1995
▁فانا	-11.1995
iw	-11.2
▁chica	-11.2001
▁sala	-11.2005
▁transport	-11.2006
zc	-11.2006
nais	-11.2008
▁المسرح	-11.2011
▁FULL	-11.2012
▁للد	-11.2013
▁toque	-11.2014
ATES	-11.2016
vA	-11.2019
▁salva	-11.2022
tho	-11.2023
▁اشتغل	-11.2026
▁الموسم	-11.2026
Zv	-11.2026
kg	-11.2027
▁veía	-11.203
نشاط	-11.203
▁intéressante	-11.2031
article	-11.2033
▁المواطن	-11.2034
▁KILL	-11.2034
▁CHANGED	-11.2038
hA	-11.2042
izada	-11.2043
▁conocido	-11.2044
▁mitad	-11.2045
▁entorno	-11.2045
YP	-11.2047
ضاع	-11.2048
▁السف	-11.2048
▁Ti	-11.2054
▁recupera	-11.2055
manifest	-11.2055
▁العمر	-11.2056
علي	-11.2059
IH	-11.2061
نسبة	-11.2065
▁شهور	-11.2066
▁نرجع	-11.2068
▁secret	-11.2068
▁verano	-11.2071
inde	-11.2072
Jp	-11.2076
▁bonheur	-11.2076
طيب	-11.2079
▁romance	-11.2079
▁خفيف	-11.2082
بقاش	-11.2085
درب	-11.2086
▁السينما	-11.2087
▁popular	-11.2087
▁كيفية	-11.2087
▁llevo	-11.2088
erreur	-11.2089
▁bru	-11.2091
ضمن	-11.2092
▁escrito	-11.2092
VL	-11.2093
باع	-11.2095
غسل	-11.2097
▁limpia	-11.2098
نظيم	-11.2098
▁pieza	-11.2098
▁مواقع	-11.2099
▁يسأل	-11.2101
▁الفت	-11.2105
حيط	-11.2107
wD	-11.2109
حاجات	-11.2112
▁فمن	-11.2113
▁adoré	-11.2113
Jk	-11.2114
enseignement	-11.2117
▁فهمت	-11.2119
▁gasto	-11.2119
▁ORGANIZATION	-11.2119
▁mauvais	-11.2121
mB	-11.2121
▁discut	-11.2122
PV	-11.2123
▁تفعل	-11.2124
▁الحالي	-11.2125
▁débat	-11.2126
LIE	-11.2126
▁constante	-11.2127
trise	-11.2128
▁relaciona	-11.2128
شاف	-11.2129
ative	-11.2131
KQ	-11.2131
SHA	-11.2131
CC	-11.2134
ألعاب	-11.2137
▁libertad	-11.2141
▁parecido	-11.2141
▁WON	-11.2141
imp	-11.2142
écri	-11.2144
HM	-11.2146
▁LISTEN	-11.2147
rage	-11.2148
▁ونشوف	-11.2151
▁conjunto	-11.2152
▁tradicional	-11.2152
▁PRESENT	-11.2152
▁اللبناني	-11.2152
▁العين	-11.2152
▁regula	-11.2153
▁plantas	-11.2153
▁المادة	-11.2153
▁faible	-11.2155
▁constat	-11.2155
LJ	-11.2159
kQ	-11.2161
▁tengamos	-11.2163
ساس	-11.2163
Ev	-11.2165
▁شيئا	-11.2167
Fc	-11.2167
▁servicios	-11.2168
éti	-11.2169
▁أف	-11.217
▁FIGHT	-11.217
▁festival	-11.2173
▁entrevista	-11.2173
Up	-11.2178
▁tercera	-11.2179
▁معناه	-11.2179
imprim	-11.2182
▁فرا	-11.2185
▁القرار	-11.2187
uM	-11.2189
kc	-11.2189
NM	-11.219
▁إشي	-11.2192
ريخ	-11.2194
▁ACCESS	-11.2195
▁colabora	-11.2195
▁GENERATION	-11.2195
مؤسسة	-11.2195
expression	-11.2196
▁ضعيف	-11.2197
ازل	-11.2198
▁باسم	-11.22
bE	-11.22
▁GENE	-11.2204
عرب	-11.2205
▁الصين	-11.2205
▁EASY	-11.2206
bw	-11.2208
▁méta	-11.2214
▁génér	-11.2214
▁المسلمين	-11.2217
▁magasin	-11.2217
زراع	-11.2217
bq	-11.2218
oublie	-11.2218
rein	-11.222
hI	-11.222
▁اشتري	-11.222
▁ممثل	-11.2224
bert	-11.2224
amo	-11.2226
▁PIECE	-11.2227
▁terrible	-11.2227
▁النجاح	-11.2227
avenir	-11.2232
عدد	-11.2232
▁humana	-11.2233
▁يجعل	-11.2234
جواب	-11.2235
▁قمت	-11.2238
تحقق	-11.2238
▁sein	-11.2239
arrivée	-11.2241
▁couche	-11.2241
▁هدول	-11.2244
▁vayan	-11.225
ليف	-11.2254
خلاف	-11.2256
▁بلاد	-11.2256
ingue	-11.2258
▁querer	-11.2258
▁NEEDS	-11.2259
▁أردت	-11.2263
▁Estamos	-11.2264
▁favorito	-11.2266
حرم	-11.2268
▁pages	-11.2269
▁POWERFUL	-11.227
▁regardé	-11.2271
YI	-11.2272
envoie	-11.2273
تميز	-11.2278
جدد	-11.228
cQ	-11.2281
▁آدم	-11.2283
▁بتاعة	-11.2287
▁GIRL	-11.2287
FIC	-11.2292
▁científico	-11.2293
▁bolsa	-11.2293
▁generación	-11.2293
JG	-11.2294
▁pequeños	-11.2296
▁doctor	-11.2299
▁جبت	-11.2299
▁vide	-11.2302
▁vacances	-11.2304
▁memoria	-11.2304
▁إيجابي	-11.2304
▁التجربة	-11.2304
▁العسكري	-11.2305
▁أوكي	-11.2306
▁NEWS	-11.2306
▁نزلت	-11.2307
▁esperar	-11.2308
شعار	-11.2309
▁بيقولوا	-11.231
▁WORKED	-11.2311
▁pinta	-11.2314
wg	-11.2314
▁الأمريكية	-11.2318
▁regal	-11.2324
▁مدرسة	-11.2326
▁COMMON	-11.2326
▁damos	-11.2327
تزوج	-11.2327
▁ايام	-11.2331
بعث	-11.2334
▁المنزل	-11.2334
▁savent	-11.2336
jg	-11.2339
ايات	-11.2339
▁obtener	-11.2342
▁الصحة	-11.2342
اجي	-11.2345
▁cama	-11.2346
▁نوصل	-11.2348
▁placer	-11.235
avance	-11.2351
جرام	-11.2352
لان	-11.2353
▁comprends	-11.2356
yg	-11.2357
سبق	-11.2357
aQ	-11.2358
gó	-11.236
xU	-11.2362
▁المشاهدة	-11.2362
TC	-11.2363
▁masculin	-11.237
▁entiende	-11.237
▁asocia	-11.237
lY	-11.2374
▁وصار	-11.2374
ذر	-11.2375
▁cierta	-11.2375
Km	-11.2376
▁caro	-11.238
▁STRONG	-11.2381
▁cache	-11.2381
▁figura	-11.2381
▁marcha	-11.2383
▁mío	-11.2384
USE	-11.2385
لأ	-11.239
videmment	-11.2391
▁الرابع	-11.2392
▁podrá	-11.2392
▁encontr	-11.2396
enseigne	-11.2396
▁encuentro	-11.2403
▁hábito	-11.2403
appartement	-11.2403
▁tendencia	-11.2403
pone	-11.2404
▁شركات	-11.2404
vI	-11.2405
graph	-11.2405
play	-11.2406
▁سلسلة	-11.2406
DG	-11.2409
▁حرام	-11.241
▁objectifs	-11.2413
apport	-11.2413
صاص	-11.2414
▁support	-11.2415
▁essentielle	-11.2415
▁aplicaciones	-11.2416
▁ناخد	-11.2416
Hq	-11.2417
روف	-11.2419
▁funcione	-11.242
OX	-11.2422
Dq	-11.2425
▁الخامس	-11.2425
▁consulta	-11.2425
▁الصبح	-11.2426
fg	-11.2427
▁إله	-11.2429
لقاء	-11.2433
▁universo	-11.2434
cup	-11.2435
Vc	-11.2436
▁Voy	-11.2439
▁اللو	-11.244
▁Lu	-11.2442
▁Ese	-11.2443
ini	-11.2444
UH	-11.2447
hab	-11.2448
▁Allez	-11.2449
▁verra	-11.2455
▁يأخذ	-11.2455
Hc	-11.2456
▁podido	-11.2458
▁السياسية	-11.2458
▁làbas	-11.246
▁INTER	-11.2461
▁oportunidades	-11.2462
matique	-11.2464
▁objetivos	-11.2465
▁HAPPENING	-11.2468
▁budget	-11.247
▁كأنه	-11.2471
▁dulce	-11.2472
▁inicio	-11.2473
observ	-11.2473
لوا	-11.2474
سفر	-11.2474
▁ceci	-11.2476
بدل	-11.2476
mate	-11.2477
▁ففي	-11.2478
▁ميت	-11.248
wY	-11.248
▁croire	-11.2481
▁mezcla	-11.2482
mZ	-11.2482
Vh	-11.2483
▁مرت	-11.2485
▁pourrez	-11.2486
Vj	-11.2487
▁الاولى	-11.2488
▁الحد	-11.2489
▁chat	-11.2489
▁NATURE	-11.2492
▁positivo	-11.2492
رعب	-11.2492
▁voudrais	-11.2493
FW	-11.2498
EZ	-11.2499
▁الاسم	-11.2502
laire	-11.2503
رفي	-11.251
▁cumplir	-11.2511
▁hicieron	-11.2514
▁CONSIDER	-11.2514
أوروبا	-11.2514
▁deben	-11.2516
oul	-11.2517
ouche	-11.2523
▁développé	-11.2525
▁consomme	-11.2526
▁suelo	-11.2527
▁البيئة	-11.2528
▁modifica	-11.2528
eE	-11.2529
Nf	-11.2529
شيخ	-11.2531
▁cabo	-11.2535
▁peinture	-11.2537
▁أخبار	-11.2537
▁وبد	-11.2537
▁حياتنا	-11.2538
▁visión	-11.2539
▁animales	-11.2542
وظيف	-11.2543
▁Real	-11.2543
▁aroma	-11.2544
▁responder	-11.2545
▁MINUTES	-11.2545
▁nuevamente	-11.2545
▁COLLEGE	-11.2548
▁FATHER	-11.2548
▁السودان	-11.2549
adresse	-11.255
▁لقد	-11.255
شروط	-11.2552
▁Saint	-11.2552
ومة	-11.2554
▁tendría	-11.2555
flex	-11.2556
▁responsabilidad	-11.2559
FQ	-11.256
WY	-11.256
لحظ	-11.2562
▁الشاشة	-11.2563
صن	-11.2563
▁جامعة	-11.2565
adora	-11.2569
amène	-11.257
▁HUNDRED	-11.257
▁NATURAL	-11.257
▁bur	-11.2572
صفح	-11.2573
rina	-11.2576
▁ويجب	-11.2576
▁gasta	-11.2578
zu	-11.2579
▁أقوم	-11.2579
rela	-11.258
▁VIEW	-11.2582
▁PROTECT	-11.2582
▁facebook	-11.2582
▁REALITY	-11.2584
▁découverte	-11.2585
▁poisson	-11.2585
MN	-11.2586
jj	-11.2592
GER	-11.2592
▁ocasión	-11.2593
▁TYPE	-11.2594
▁نن	-11.2595
▁For	-11.2596
▁Pri	-11.2601
CD	-11.2602
▁BEHIND	-11.2604
▁فهذه	-11.2604
▁bizarre	-11.2604
▁vérité	-11.2606
▁نجيب	-11.2607
▁هقول	-11.2607
▁clic	-11.2607
xY	-11.2609
قى	-11.261
appliquer	-11.2612
▁protagonista	-11.2615
▁viol	-11.2617
yI	-11.2619
col	-11.2621
cti	-11.2622
▁الدفاع	-11.2624
▁ابت	-11.2625
برد	-11.2625
▁nourri	-11.2626
▁conférence	-11.2627
▁gauche	-11.2627
▁mover	-11.2627
▁sociale	-11.2628
▁إليه	-11.2631
▁bajar	-11.2634
▁science	-11.2635
▁beneficios	-11.2636
▁batería	-11.2638
▁laboral	-11.264
ellement	-11.2642
▁OUTSIDE	-11.2642
script	-11.2643
▁faisant	-11.2643
avec	-11.2644
▁aimez	-11.2645
الثلاث	-11.2646
▁smartphone	-11.2649
▁club	-11.265
RL	-11.265
bP	-11.2651
▁decimos	-11.2651
▁negro	-11.2651
zM	-11.2655
ولوجي	-11.2655
augmenter	-11.2661
▁emprendedor	-11.2661
▁máximo	-11.2661
▁territoire	-11.2661
▁وشو	-11.2663
▁moimême	-11.2663
BM	-11.2665
▁travaillé	-11.2668
▁قررت	-11.2672
▁requiere	-11.2672
▁entrega	-11.2674
▁sang	-11.2675
angle	-11.2679
▁GIVEN	-11.268
▁FAST	-11.2681
qN	-11.2681
▁THIRD	-11.2684
▁réflexion	-11.2684
▁adulto	-11.2684
▁RATHER	-11.2684
▁مستمر	-11.2684
mU	-11.2684
▁دراسة	-11.2684
mili	-11.2687
▁يخرج	-11.2687
▁تخرج	-11.2687
ancien	-11.2693
▁Cor	-11.2695
▁OPPORTUNITY	-11.2695
▁Québec	-11.2695
▁mentir	-11.2696
▁CAT	-11.2698
▁veremos	-11.2703
خطوط	-11.2705
▁الإمارات	-11.2706
▁palette	-11.2706
▁marqué	-11.2711
سرح	-11.2713
HB	-11.2717
▁implica	-11.2719
▁fun	-11.2719
▁hubo	-11.272
▁الاتحاد	-11.272
▁مناسب	-11.2729
▁MARKET	-11.2729
rier	-11.2733
▁الشو	-11.2733
▁النهار	-11.2733
bour	-11.2734
▁cultural	-11.2734
شحن	-11.2738
équilibre	-11.2741
▁أحلى	-11.2741
▁عيني	-11.2746
▁الأحداث	-11.2752
▁entrada	-11.2752
▁السياسي	-11.2753
▁queréis	-11.2754
▁lourd	-11.2756
خوان	-11.2757
▁actualmente	-11.2757
TQ	-11.2758
BC	-11.2758
▁hagan	-11.2759
سباني	-11.2762
Vu	-11.2763
ائه	-11.2763
▁hicimos	-11.2764
▁évolue	-11.2764
▁moitié	-11.2764
وضة	-11.2769
appro	-11.277
روم	-11.2773
كيل	-11.2775
▁Peutêtre	-11.2775
▁confianza	-11.2776
sensible	-11.2781
MENTS	-11.2782
▁NON	-11.2784
AF	-11.2785
tain	-11.2786
▁cellule	-11.2787
▁بيصير	-11.2787
▁luimême	-11.2787
▁compré	-11.2788
سمى	-11.279
فش	-11.2791
▁وبس	-11.2793
إجابة	-11.2793
pY	-11.2795
▁visual	-11.2796
▁temporada	-11.2798
▁النتيجة	-11.2798
▁útil	-11.2798
▁REALIZE	-11.28
▁يسمى	-11.2801
▁بالح	-11.2805
QJ	-11.2806
بالغ	-11.2808
▁recevoir	-11.281
▁activités	-11.2815
▁LONGER	-11.2816
▁HUGE	-11.2821
▁joueurs	-11.2825
ويات	-11.2826
tada	-11.2827
▁وبعدها	-11.2827
▁اساس	-11.2831
▁LEAST	-11.2833
▁propósito	-11.2833
▁LOCAL	-11.2833
nY	-11.2833
▁dirige	-11.2833
▁COMPLETELY	-11.2834
▁formación	-11.2835
▁BILLION	-11.2837
▁فاكر	-11.2838
▁قطر	-11.2839
سلح	-11.2844
▁INTERNET	-11.2844
▁audio	-11.2847
▁respond	-11.2847
Pk	-11.285
QUE	-11.285
نون	-11.285
▁تذهب	-11.2852
رزق	-11.2855
▁similar	-11.2856
▁فرنسا	-11.2858
▁يسمع	-11.2859
▁وتقول	-11.2861
▁suele	-11.2861
ايب	-11.2863
▁بتاعي	-11.2863
▁شرط	-11.2867
▁كيلو	-11.2867
▁Pu	-11.2867
▁aproximadamente	-11.2867
▁نظري	-11.2867
▁مصدر	-11.2873
ibilidad	-11.2874
سماع	-11.2874
Vw	-11.2876
▁promet	-11.2876
حقيقة	-11.2879
جبر	-11.2879
▁وعشرين	-11.2879
▁واضحة	-11.2879
▁REACH	-11.288
▁TEACH	-11.288
▁وهناك	-11.288
▁مكتب	-11.2881
▁GIRLS	-11.2885
érie	-11.2888
▁necesito	-11.2891
▁président	-11.2891
▁SUPER	-11.2891
▁مسألة	-11.2891
▁GAVE	-11.2891
▁actions	-11.2892
رغ	-11.2892
▁juntos	-11.2896
▁الورق	-11.2898
▁Quier	-11.2898
▁PERFECT	-11.2902
▁SIMPLY	-11.2902
▁SOLUTION	-11.2902
▁LOST	-11.2903
▁vuestro	-11.2903
Dc	-11.2903
WV	-11.2908
bro	-11.2914
▁Después	-11.2914
▁heureux	-11.2914
▁quantité	-11.2914
▁village	-11.2915
OG	-11.2915
ولو	-11.2918
UNC	-11.2922
▁سنتين	-11.2922
▁البلا	-11.2923
▁AREA	-11.2924
▁services	-11.2925
▁maquillaje	-11.2926
hU	-11.2928
▁rol	-11.293
خلاق	-11.2931
iR	-11.2932
▁تشترك	-11.2933
Tk	-11.2935
qL	-11.2935
فتاح	-11.2937
▁artículo	-11.2937
▁عموما	-11.2937
▁الحركة	-11.2937
▁evalua	-11.2937
▁competencia	-11.2938
ham	-11.2938
▁recomendar	-11.2941
▁ciertas	-11.2944
▁masse	-11.2945
لاب	-11.2947
▁EFFECT	-11.2948
▁SCIENTIST	-11.2949
▁phénomène	-11.2949
▁وهكذا	-11.2949
▁distancia	-11.2949
سبت	-11.295
▁connaissance	-11.295
▁rato	-11.2951
empl	-11.2951
leta	-11.2951
▁BUY	-11.2953
▁وجل	-11.2955
berg	-11.2956
cade	-11.2956
▁junta	-11.2957
vb	-11.2959
▁الدرا	-11.2959
▁Hace	-11.296
▁يوتيوب	-11.2961
▁WORKS	-11.2961
▁letra	-11.2962
▁الموبايل	-11.2966
xj	-11.2966
yF	-11.297
▁intéressé	-11.2972
ándose	-11.2973
▁colon	-11.2973
▁FORCE	-11.2976
zU	-11.2977
حوار	-11.2983
عامل	-11.2983
▁plástico	-11.2984
▁spécifique	-11.2984
إضاءة	-11.2987
▁مما	-11.2989
▁presidente	-11.2996
▁Ki	-11.3003
▁ADD	-11.3004
▁EYES	-11.3007
entretien	-11.3008
كابتن	-11.3009
▁remettre	-11.3009
سلسل	-11.301
ngel	-11.3013
▁CELLS	-11.3013
ONS	-11.3013
▁بالد	-11.3016
▁تحاول	-11.3016
▁priori	-11.3019
▁العالمية	-11.3019
▁وفعلا	-11.3019
▁الأخرى	-11.302
▁الحض	-11.3021
qP	-11.3023
▁ذاك	-11.3023
▁ideal	-11.3025
▁bac	-11.3027
حادث	-11.3029
▁doigt	-11.3031
▁adopt	-11.3032
▁directo	-11.3033
▁sciences	-11.3034
غام	-11.3036
▁خليني	-11.3038
حول	-11.3039
▁stock	-11.3043
▁gaz	-11.3044
cular	-11.3045
دف	-11.3045
ZK	-11.3048
نفذ	-11.3049
▁aquello	-11.305
قبول	-11.3054
▁élevé	-11.3055
▁EARLY	-11.3055
alidad	-11.3056
▁نحاول	-11.3056
فاجئ	-11.3058
▁tono	-11.3058
عدي	-11.3059
▁يكتب	-11.306
quita	-11.3064
▁ECONOMIC	-11.3066
▁excelente	-11.3066
▁performance	-11.3066
مؤسسات	-11.3066
nia	-11.3071
▁determina	-11.3073
HK	-11.3075
BLE	-11.3076
▁Muchas	-11.3078
▁UNITED	-11.3078
JM	-11.3079
uré	-11.308
▁يظهر	-11.3081
▁aquel	-11.3081
▁بالف	-11.3083
GQ	-11.3085
▁MOM	-11.3086
▁الخارج	-11.309
▁tendrá	-11.309
تجاوز	-11.3091
▁اخوان	-11.3093
▁هنتكلم	-11.3094
IER	-11.3099
Of	-11.3101
AE	-11.3102
▁lycée	-11.3102
▁taller	-11.3102
▁mínimo	-11.3102
actif	-11.3103
LIN	-11.3104
▁fiesta	-11.3104
▁désir	-11.3105
▁النوم	-11.3105
▁خلصت	-11.3107
▁بالفعل	-11.3109
vm	-11.3112
▁coin	-11.3112
▁felicidad	-11.3114
جميل	-11.3116
▁comentar	-11.3121
▁problématique	-11.3126
▁imposible	-11.3126
نح	-11.3128
tg	-11.3129
▁تختار	-11.3129
تناول	-11.313
OUR	-11.3131
Fn	-11.3134
▁تمشي	-11.3134
aza	-11.3134
pQ	-11.3138
▁DOLLARS	-11.3138
resse	-11.3138
yU	-11.3138
hZ	-11.3139
▁expres	-11.3139
tiendo	-11.3139
▁querido	-11.3141
atrice	-11.3142
▁signe	-11.3146
▁GUY	-11.3151
▁البد	-11.3152
▁règle	-11.3154
ático	-11.3155
▁لأنك	-11.3155
ضبط	-11.3157
Xc	-11.3159
▁PHYSICAL	-11.3161
▁crecimiento	-11.3161
▁pantalon	-11.3161
▁adapté	-11.3162
▁اهلا	-11.3162
▁IMAGE	-11.3162
▁يستخدم	-11.3163
▁plantea	-11.3163
نجليز	-11.3164
▁الأل	-11.3165
TP	-11.3167
▁mètres	-11.3169
▁هتبقى	-11.317
▁أفلام	-11.3171
▁produire	-11.3173
▁الرحيم	-11.3173
صوت	-11.3175
▁ابدا	-11.3176
ich	-11.3177
existe	-11.3179
ml	-11.3181
appeler	-11.3181
▁récit	-11.3182
OVER	-11.3183
▁اختار	-11.3185
▁notas	-11.3188
راح	-11.319
Kq	-11.3191
▁أثناء	-11.3194
ity	-11.3195
▁رجعت	-11.3196
FULLY	-11.3202
▁العطر	-11.3202
▁اربع	-11.3202
fund	-11.3203
FC	-11.3208
▁error	-11.3208
gH	-11.321
FO	-11.321
▁وخل	-11.3213
حارب	-11.3213
▁وفا	-11.3214
▁BREAK	-11.3214
trice	-11.3214
▁estáis	-11.3217
tag	-11.3219
Bg	-11.3219
▁فده	-11.322
▁الفعل	-11.3221
▁TRUTH	-11.3221
▁الجميع	-11.3222
STRUCT	-11.3223
▁فكل	-11.3223
▁agrega	-11.3226
▁لأنني	-11.3227
▁الصور	-11.3228
▁قدامك	-11.3228
lito	-11.3229
▁légère	-11.3233
▁completa	-11.3234
▁واخد	-11.3234
▁هالم	-11.3234
▁lance	-11.3236
واد	-11.3238
entrée	-11.3239
▁وهت	-11.324
لهم	-11.3241
حار	-11.3241
ografía	-11.3241
abilidad	-11.3241
Kw	-11.3242
▁compañeros	-11.3243
▁bebé	-11.3246
رضى	-11.3246
هار	-11.3249
▁مشهور	-11.325
▁خالد	-11.3251
▁MEANING	-11.3252
▁boca	-11.3254
▁retourne	-11.3257
▁CANNOT	-11.3257
▁rendezvous	-11.3258
▁قليلا	-11.3259
▁bureau	-11.3259
▁السعودي	-11.3262
جاج	-11.3265
▁يقل	-11.327
▁phase	-11.327
▁preuve	-11.3271
▁quedó	-11.3272
▁تعملوا	-11.3272
▁وغيرها	-11.3273
aR	-11.3273
▁لأول	-11.3275
xv	-11.3276
عبد	-11.3278
▁connaissances	-11.328
▁quitar	-11.3281
gène	-11.3282
▁podcast	-11.3282
▁SITUATION	-11.3282
▁التن	-11.3282
BUL	-11.3282
Yk	-11.3286
KN	-11.3286
ZX	-11.3291
aura	-11.3293
▁analizar	-11.3295
▁هتكون	-11.3296
▁مستقبل	-11.3298
▁crecer	-11.3298
WM	-11.33
ASH	-11.33
▁WHATEVER	-11.33
▁STREET	-11.3306
▁طلاب	-11.3308
▁décr	-11.3308
▁insu	-11.3308
ائف	-11.3308
▁maman	-11.3311
▁السفر	-11.3313
▁four	-11.3318
pac	-11.3322
▁organización	-11.3325
▁Val	-11.3325
▁رأيك	-11.3326
▁بالق	-11.3326
▁اقل	-11.3327
▁المنتجات	-11.3329
VY	-11.333
▁chapitre	-11.333
▁ALONG	-11.333
▁والر	-11.3331
▁hidr	-11.3331
▁الأساسية	-11.3334
تصريح	-11.3336
▁الملعب	-11.3336
éro	-11.3337
▁aquellas	-11.3338
Xl	-11.3338
▁véritable	-11.3339
▁المملكة	-11.3339
▁PRODUCE	-11.3342
▁Cuál	-11.3343
WO	-11.3343
يغ	-11.3343
BF	-11.3347
luci	-11.3347
Xu	-11.3351
▁termine	-11.3351
▁Fait	-11.3353
entendre	-11.3354
intéresser	-11.3355
▁Plus	-11.3355
▁dossier	-11.3355
intégr	-11.3357
زان	-11.3357
▁أنتم	-11.3358
Xo	-11.3359
KO	-11.336
▁TREAT	-11.3361
obtenir	-11.3362
قدي	-11.3363
ربة	-11.3364
▁اللقاء	-11.3367
hV	-11.3367
utilisation	-11.3367
▁بتكلم	-11.3368
▁ventaja	-11.3369
pP	-11.3369
▁carrière	-11.337
▁الأسبوع	-11.3371
CHO	-11.3371
▁والص	-11.3371
▁العصر	-11.3373
Qw	-11.3375
دعي	-11.3378
▁PRACTICE	-11.3379
▁WONDER	-11.338
qc	-11.3381
▁tenue	-11.3381
▁especialmente	-11.3389
▁ressenti	-11.339
▁miren	-11.339
اهو	-11.3392
▁Ouais	-11.3393
▁كاس	-11.3393
▁pago	-11.3398
▁ينفعش	-11.3398
▁certainement	-11.3399
▁materiales	-11.3402
▁superior	-11.3404
▁alimentos	-11.3404
▁terminer	-11.3407
Oo	-11.3409
kA	-11.3409
▁اعتقد	-11.341
عجبني	-11.3412
étudiant	-11.3414
MC	-11.3415
▁psicología	-11.3416
▁الدراسة	-11.3416
▁quienes	-11.3418
ute	-11.3419
▁verlo	-11.342
▁estábamos	-11.3423
THER	-11.3424
▁profiter	-11.3426
▁cualquiera	-11.3426
▁master	-11.343
▁soirée	-11.3431
▁partenaire	-11.3431
▁fourni	-11.3433
▁القوة	-11.3436
▁confort	-11.3436
بدو	-11.3438
▁قليلة	-11.3439
▁impossible	-11.344
▁commande	-11.344
▁perte	-11.3441
▁maquillage	-11.3441
▁circula	-11.3441
vB	-11.3442
▁سوا	-11.3443
▁الجاية	-11.3452
▁محمود	-11.3452
DC	-11.3453
ترو	-11.3453
▁pote	-11.3454
▁Ber	-11.3455
ندو	-11.3457
▁potencia	-11.3457
قراء	-11.3457
wB	-11.3458
▁compet	-11.346
▁محترم	-11.346
▁événements	-11.346
▁potencial	-11.346
▁قصير	-11.3464
▁potentiel	-11.3464
emb	-11.3466
▁الفيسبوك	-11.3477
ifie	-11.348
▁manten	-11.348
▁WATCH	-11.3483
▁الشخصيات	-11.3486
▁شعري	-11.3488
▁GOAL	-11.3488
▁يقولوا	-11.3489
▁referencia	-11.3489
▁proposé	-11.3489
▁guste	-11.3492
▁llegan	-11.3493
▁durant	-11.3494
▁tourner	-11.3494
▁حقوق	-11.3495
باء	-11.3496
▁socio	-11.3497
▁savais	-11.3498
ancia	-11.3499
▁POSITIVE	-11.3502
▁indispensable	-11.3502
▁فقلت	-11.3502
▁يعملوا	-11.3502
étudie	-11.3502
مجرد	-11.3505
ومات	-11.3507
▁miles	-11.3509
▁بحكي	-11.351
▁KNOWLEDGE	-11.3514
▁agarra	-11.3516
▁presencia	-11.3516
▁مالك	-11.3517
preci	-11.3519
▁نحب	-11.3521
Mg	-11.3523
▁traje	-11.3523
▁ألمانيا	-11.3526
▁viviendo	-11.3527
▁rutina	-11.3527
▁vuestra	-11.3527
▁الموقف	-11.3528
▁يعلم	-11.3532
▁saludo	-11.3534
▁وطلع	-11.3535
gamos	-11.3536
وء	-11.3537
▁الفلسفة	-11.3539
▁NORMAL	-11.3539
سقط	-11.3539
▁مره	-11.3539
▁guerra	-11.354
▁بياخد	-11.354
▁كنتم	-11.3541
YE	-11.3542
▁عثمان	-11.3542
▁وإنت	-11.3543
▁مشكل	-11.3543
▁بقيت	-11.3545
▁التف	-11.3548
▁Cam	-11.3549
▁puissant	-11.3549
امير	-11.355
شور	-11.3551
▁littérature	-11.3551
رأ	-11.3554
▁Ven	-11.3558
▁arrivent	-11.3562
atteindre	-11.3563
صدم	-11.3564
▁oferta	-11.3564
قاس	-11.3565
▁FALL	-11.3566
rQ	-11.3567
▁يتحدث	-11.3568
▁نحط	-11.3568
lage	-11.3569
▁empiezan	-11.3571
▁papa	-11.3576
▁MAJOR	-11.3576
▁الكلمات	-11.3577
رقام	-11.3581
EB	-11.3583
cM	-11.3587
accessoire	-11.3588
▁google	-11.3588
nier	-11.3592
IK	-11.36
▁COLLECT	-11.3601
▁STRESS	-11.3601
▁tarjeta	-11.3601
▁double	-11.3601
▁شكله	-11.3602
▁réuni	-11.3603
ؤدي	-11.3603
برج	-11.3606
▁venía	-11.3606
ISTIC	-11.3608
▁DIA	-11.3612
▁جايب	-11.3613
▁الاستثمار	-11.3614
▁بيتكلم	-11.3614
▁الأفكار	-11.3615
▁oublié	-11.3615
▁dépense	-11.3615
▁creen	-11.3616
game	-11.3618
▁link	-11.3618
▁tient	-11.3619
مكن	-11.3621
▁إيد	-11.3621
ñe	-11.3623
▁fête	-11.3623
▁élément	-11.3625
▁MIDDLE	-11.3626
Afrique	-11.3626
ónica	-11.3626
▁الصباح	-11.3626
▁revue	-11.3627
cité	-11.3629
رتفع	-11.3632
رط	-11.3635
xw	-11.3637
▁بالليل	-11.364
تجوز	-11.364
▁tenir	-11.3642
عصر	-11.3643
PN	-11.3643
GX	-11.3645
▁Terre	-11.3646
▁mayores	-11.3648
ake	-11.3649
▁ATTENTION	-11.3651
▁Nosotros	-11.3651
▁fórmula	-11.3651
▁معلومة	-11.3651
▁وعشان	-11.3652
KM	-11.3656
▁tourne	-11.3657
▁séance	-11.3662
▁الداخل	-11.3662
▁متأكد	-11.3664
▁SIT	-11.3664
ستفاد	-11.3664
▁FINALLY	-11.3665
▁الشمال	-11.3667
▁llegamos	-11.3668
▁البنك	-11.3669
rup	-11.3674
▁SHORT	-11.3676
مائة	-11.3678
▁دعونا	-11.3678
▁يتعلم	-11.368
▁الحوار	-11.3683
▁الحوا	-11.3683
Yg	-11.3683
▁conocemos	-11.3684
▁consum	-11.3688
▁وايد	-11.3688
▁الأخير	-11.369
uh	-11.369
quí	-11.3691
gy	-11.3692
QR	-11.3693
▁Ahí	-11.3694
dU	-11.3696
▁PASSION	-11.3696
▁حابب	-11.37
▁belleza	-11.3704
▁خلونا	-11.3704
آن	-11.3707
opportunité	-11.3714
▁MORNING	-11.3714
▁المياه	-11.3714
▁يفعل	-11.3717
▁السابقة	-11.372
wE	-11.3723
▁conséquence	-11.3726
▁hermana	-11.3726
▁الموت	-11.3727
▁rendimiento	-11.3728
▁بتاعنا	-11.3729
▁السب	-11.373
roll	-11.3731
poniendo	-11.3731
bY	-11.3731
HAR	-11.3733
▁يتعلق	-11.3734
▁direction	-11.3736
▁يفكر	-11.3737
▁supérieur	-11.3739
▁عبدالله	-11.3741
▁personnelle	-11.3743
liza	-11.3744
adi	-11.3744
▁faisais	-11.375
▁يفهم	-11.3751
▁destaca	-11.3754
▁TAKES	-11.3755
▁KID	-11.3758
▁الضغط	-11.3759
▁الكار	-11.3759
▁العلماء	-11.376
▁comienza	-11.3764
▁mathématique	-11.3764
▁dizaine	-11.3764
▁تعليم	-11.3765
▁estuve	-11.3767
Kc	-11.3772
بوط	-11.3775
▁creer	-11.3776
▁BAR	-11.3776
▁publique	-11.3777
▁afuera	-11.3777
gada	-11.3779
nH	-11.378
▁ايوه	-11.3785
▁ACTION	-11.3787
▁ذكرت	-11.3788
Dj	-11.3789
وحي	-11.3789
▁FIELD	-11.379
▁clásico	-11.379
▁évident	-11.379
▁صندوق	-11.379
▁نصيحة	-11.3791
▁quiera	-11.3794
▁AMERICA	-11.3796
لفت	-11.3797
kk	-11.3798
▁écoutez	-11.3799
▁ASKING	-11.38
توب	-11.3802
▁pression	-11.3804
▁conocí	-11.3804
▁pelea	-11.3804
توفيق	-11.3804
▁لابس	-11.3814
▁CREATED	-11.3814
▁التدريب	-11.3815
effet	-11.3816
▁Mc	-11.3816
▁متر	-11.3817
Ci	-11.3817
▁صلاح	-11.3818
opinion	-11.3821
▁UNDERSTANDING	-11.3821
صيد	-11.3823
▁رهيب	-11.3823
▁الأح	-11.3823
▁المعلومة	-11.3828
▁Vale	-11.3831
▁اخرى	-11.3835
▁للح	-11.3837
▁complica	-11.3838
احي	-11.3838
▁أسر	-11.3839
mac	-11.3841
▁condition	-11.3842
▁سبحان	-11.3844
▁comentario	-11.3844
▁GOD	-11.3845
كشن	-11.3849
bia	-11.385
▁noticias	-11.3855
▁اللهم	-11.3857
رتبط	-11.3862
Cb	-11.3863
WR	-11.3863
داخل	-11.3866
▁charla	-11.3866
▁conectar	-11.3867
▁PICK	-11.3867
▁الشام	-11.3867
▁paquet	-11.3868
▁الإمام	-11.3868
▁elemento	-11.3869
دفاع	-11.3871
▁salida	-11.3871
▁decirlo	-11.3871
▁KEY	-11.3872
▁carne	-11.3875
éclair	-11.3875
▁deseo	-11.3875
gb	-11.3876
cF	-11.3877
عراض	-11.3879
ciendo	-11.388
▁طبيعية	-11.388
▁milliards	-11.3882
▁سلبي	-11.3886
▁HANDS	-11.3886
قيل	-11.3888
▁كنتش	-11.3888
▁Fi	-11.3888
▁الخليج	-11.3891
▁repar	-11.3891
بدع	-11.3892
▁اسرائيل	-11.3892
▁golpe	-11.3892
▁bébé	-11.3892
NDER	-11.3892
▁humanidad	-11.3893
▁بتن	-11.3893
Tc	-11.3897
Zo	-11.3897
▁motiva	-11.3899
inverse	-11.3904
▁citoyen	-11.3905
apprécie	-11.3905
▁Fue	-11.3905
▁evidentemente	-11.3906
ولوجيا	-11.3907
▁assis	-11.3909
▁الأب	-11.3909
▁permettra	-11.3909
بوس	-11.3913
▁conciencia	-11.3918
▁escenario	-11.3918
▁quizá	-11.3921
▁الرا	-11.3922
BQ	-11.3923
▁pude	-11.3924
▁supone	-11.3926
▁motivo	-11.3928
▁límite	-11.3931
شئ	-11.3932
▁الكرام	-11.3935
vision	-11.3937
▁jugadores	-11.3942
CW	-11.3943
▁UNIVERSITY	-11.3944
▁plastique	-11.3944
NP	-11.3945
TAN	-11.3946
book	-11.3947
alimentation	-11.3948
ائج	-11.3951
قائد	-11.3954
لوس	-11.3955
▁obten	-11.3956
▁TRUST	-11.3956
ssent	-11.3956
humanité	-11.3958
▁perdón	-11.3959
▁النساء	-11.3959
▁Che	-11.3963
▁الجميلة	-11.3963
▁Pre	-11.3967
▁nutri	-11.3967
▁COMPANIES	-11.3969
▁pienso	-11.3969
▁MEDICAL	-11.397
DEN	-11.397
▁feu	-11.3971
▁nombreuses	-11.3971
▁perfectamente	-11.3971
▁القادم	-11.3974
Ik	-11.3974
▁ponen	-11.3977
ZF	-11.3978
Iw	-11.398
HW	-11.3982
▁árbol	-11.3982
▁elimina	-11.3982
▁dépasse	-11.3983
▁EtatsUnis	-11.3984
viendra	-11.3984
DW	-11.3984
▁davantage	-11.3986
▁llamada	-11.3988
▁motor	-11.3989
▁pide	-11.3989
ivité	-11.3992
▁hospital	-11.3995
▁peligro	-11.3995
▁practica	-11.3995
▁iphone	-11.3996
▁malade	-11.3996
ريف	-11.3998
▁développe	-11.3998
▁SPENT	-11.3999
hésite	-11.3999
pE	-11.4001
terra	-11.4001
Hv	-11.4003
▁TV	-11.4005
▁puse	-11.4006
▁audelà	-11.4008
▁علاج	-11.4011
exploit	-11.4012
دوم	-11.4013
exemple	-11.4014
بوت	-11.4019
▁Mont	-11.4021
▁BEGIN	-11.4021
▁experimenta	-11.4021
▁consommation	-11.4021
▁positiva	-11.4021
▁producir	-11.4021
▁PROVIDE	-11.4021
محاضرة	-11.4022
Kh	-11.4025
▁démon	-11.4027
▁ولازم	-11.4028
VG	-11.4029
▁المغربي	-11.403
MARK	-11.4033
illus	-11.4033
▁Amazon	-11.4034
DV	-11.4039
▁réaction	-11.4042
▁remarque	-11.4047
▁محتاجة	-11.4048
أكد	-11.4049
▁المالية	-11.4049
▁reprendre	-11.405
innovation	-11.4051
évite	-11.4051
▁matemáticas	-11.4051
▁cata	-11.4052
▁اللايك	-11.4053
▁المزيد	-11.4055
ándole	-11.4055
▁específico	-11.406
▁design	-11.4064
▁يمكنك	-11.4066
وظف	-11.4069
Wm	-11.4069
▁الدولية	-11.407
زول	-11.407
▁doble	-11.4072
tru	-11.4073
▁PERHAPS	-11.4073
▁SERVICE	-11.4073
▁canción	-11.4076
▁الاحت	-11.4076
ngo	-11.4076
échelle	-11.4079
▁estaría	-11.408
▁masque	-11.4084
ائع	-11.4085
▁llevan	-11.4086
▁Siempre	-11.4087
▁asegura	-11.4087
▁regresa	-11.4087
▁Gar	-11.4087
▁TRIED	-11.4088
▁يمشي	-11.4089
iana	-11.4089
gc	-11.4091
connect	-11.4093
▁EXPERIMENT	-11.41
▁protéger	-11.41
▁surface	-11.41
▁تلاتة	-11.41
▁نتائج	-11.41
▁مليار	-11.4101
▁الشرطة	-11.4102
▁finance	-11.4103
▁بتجي	-11.4103
بداع	-11.4104
éveil	-11.4104
▁révolution	-11.4105
دراما	-11.4107
▁التص	-11.4107
▁تعرفوا	-11.4107
▁descend	-11.4108
▁drôle	-11.4113
▁CHANCE	-11.4113
▁FAIL	-11.4113
▁اشياء	-11.4113
عمق	-11.4117
حلق	-11.4117
UNT	-11.4118
▁ram	-11.4118
ight	-11.412
جع	-11.4121
▁faudra	-11.4123
سيد	-11.4125
▁fútbol	-11.4126
▁minimum	-11.4126
▁huele	-11.4127
متابعة	-11.4132
▁dehors	-11.4132
▁الكاتب	-11.4134
▁نستخدم	-11.4138
▁المناطق	-11.4139
▁القراءة	-11.4139
▁tatouage	-11.414
▁Chi	-11.4143
▁سيارة	-11.4144
▁ببساطة	-11.4152
▁violencia	-11.4153
▁THOUSANDS	-11.4154
LH	-11.4155
▁السعر	-11.4157
▁tort	-11.4158
أجهزة	-11.4158
iéramos	-11.4162
uA	-11.4163
هاجم	-11.4164
▁اللعب	-11.4165
▁هادي	-11.4166
▁للق	-11.4169
▁WOULDN	-11.4169
انس	-11.4169
▁غالي	-11.4173
RAIN	-11.4173
▁Mira	-11.4176
▁inversiones	-11.4179
▁douleur	-11.4179
▁traitement	-11.4179
▁خبرة	-11.4181
▁chien	-11.4184
ouille	-11.4184
affaire	-11.4186
▁حدود	-11.4186
كتور	-11.4192
▁SMART	-11.4192
▁concours	-11.4192
▁كلمات	-11.4194
▁dijeron	-11.4198
▁rappel	-11.4199
▁وحط	-11.4199
تجمع	-11.4199
▁الفصل	-11.4202
▁AMOUNT	-11.4205
ونس	-11.4206
▁souvenir	-11.4206
غالب	-11.4207
Cg	-11.4209
▁SL	-11.421
▁الجاي	-11.421
▁aprende	-11.4211
لقى	-11.4213
▁contesta	-11.4213
▁appelé	-11.4217
échec	-11.4219
▁بالشكل	-11.422
▁orienta	-11.422
OPE	-11.4223
▁متل	-11.4225
isent	-11.4226
▁Dé	-11.4229
▁POTENTIAL	-11.4232
▁contigo	-11.4232
▁تعود	-11.4239
▁CERTAIN	-11.4241
ANA	-11.4244
▁rythme	-11.4245
▁interpreta	-11.4245
▁pudiera	-11.4245
صمم	-11.4246
▁BORN	-11.4246
▁ANYONE	-11.4246
▁فلازم	-11.4248
▁قلتلك	-11.4249
PB	-11.4251
▁masa	-11.4252
ística	-11.4253
úl	-11.4253
▁participer	-11.4253
▁القدم	-11.4254
▁تقعد	-11.4255
قنع	-11.4256
▁soutien	-11.4258
▁acostumbra	-11.4258
▁philosophie	-11.4258
▁temperatura	-11.4258
▁GENDER	-11.4258
▁visible	-11.426
▁CONTINUE	-11.426
mA	-11.4261
▁demostr	-11.4264
▁lancé	-11.4264
kw	-11.4265
▁disciplina	-11.4267
زهر	-11.4271
▁Otra	-11.4271
غد	-11.4271
▁pandemia	-11.4272
مصطفى	-11.4272
Lf	-11.4272
COM	-11.4275
▁FARM	-11.4275
▁feuille	-11.4278
▁العراقي	-11.428
▁gagne	-11.4281
عجاب	-11.4281
AMA	-11.4281
▁بتاخد	-11.4282
▁MACHINE	-11.4285
▁POLITICAL	-11.4285
▁collègue	-11.4285
▁haute	-11.4287
▁الحمل	-11.4287
ange	-11.429
logía	-11.429
▁ابني	-11.4291
fY	-11.4292
▁diario	-11.4294
BH	-11.4297
accompagner	-11.4298
▁BEGAN	-11.4298
▁ponemos	-11.4301
▁sentía	-11.4303
▁اخي	-11.4306
▁أصدقائي	-11.4312
▁cuidar	-11.4312
غال	-11.4314
importance	-11.4315
متلك	-11.4316
leur	-11.4317
▁أطفال	-11.4317
بكي	-11.4318
عترف	-11.4319
cq	-11.4319
▁بتتكلم	-11.432
▁مدى	-11.4323
بحر	-11.4324
▁وقالت	-11.4325
▁خدمة	-11.4325
phi	-11.4331
▁necesidades	-11.4333
▁cobra	-11.4333
▁aprovechar	-11.4333
MH	-11.4335
هيئة	-11.4336
▁الممثل	-11.4336
▁المكتب	-11.4338
▁inteligente	-11.4339
▁perspectiva	-11.4339
▁cuándo	-11.4339
▁oficial	-11.4339
gI	-11.4339
▁quedan	-11.4339
ció	-11.434
Rc	-11.4342
▁serio	-11.4344
▁Sol	-11.4352
▁garçon	-11.4352
▁psico	-11.4352
▁SOLVE	-11.4353
▁bouton	-11.4353
▁gou	-11.4357
▁poche	-11.4357
▁alguno	-11.4361
Fl	-11.4362
▁الحمام	-11.4362
uL	-11.4363
Hj	-11.4368
option	-11.4369
▁PROP	-11.4371
غط	-11.4375
lE	-11.4376
▁تظهر	-11.4379
bA	-11.438
▁تلبس	-11.438
▁عزيزي	-11.4387
▁VIDEO	-11.4392
▁OKAY	-11.4393
▁conclusion	-11.4393
▁عاش	-11.4393
قاع	-11.4397
▁جسمك	-11.44
▁presentación	-11.4401
mQ	-11.4401
▁يقرأ	-11.4402
▁cadeau	-11.4404
Fu	-11.4405
▁POPULATION	-11.4406
▁Vraiment	-11.4406
▁STAGE	-11.441
▁necesitan	-11.4411
Rh	-11.4412
ática	-11.4414
▁muchísima	-11.4416
ذب	-11.4416
▁ANIMALS	-11.4416
Gw	-11.4417
▁بتطلع	-11.4419
accueil	-11.4419
▁éventuellement	-11.4419
▁blanche	-11.4421
OLOGY	-11.4422
طورة	-11.4423
وزع	-11.4427
حصول	-11.4428
▁تنسى	-11.443
▁المشهد	-11.4431
▁Déjà	-11.4433
▁gamme	-11.4433
▁propuesta	-11.4435
▁Soy	-11.4436
▁أصبحت	-11.4436
▁وحب	-11.4438
▁guide	-11.4438
▁salió	-11.4438
نوع	-11.4439
▁نسمع	-11.444
uto	-11.4441
▁SAN	-11.4444
▁الإنجليزية	-11.4444
▁PLANT	-11.4446
▁ACCEPT	-11.4447
▁وكأن	-11.4447
Ck	-11.4447
▁لأنهم	-11.445
اير	-11.4456
سيل	-11.4459
▁رياضة	-11.446
▁hogar	-11.4461
▁prévu	-11.4462
gué	-11.4464
▁نطلع	-11.4464
▁TRAVEL	-11.4474
▁COUNT	-11.4474
élève	-11.4474
رقة	-11.4475
▁director	-11.4475
▁الزوج	-11.4476
ndré	-11.4476
▁أقوى	-11.4477
جوم	-11.4478
▁المسؤول	-11.4481
▁احكي	-11.4483
تقنية	-11.4484
▁código	-11.4487
▁peuple	-11.4488
hc	-11.4489
▁تلق	-11.4489
WZ	-11.449
▁يومين	-11.4494
▁montré	-11.4496
قوي	-11.4496
▁MICRO	-11.4501
▁GIVING	-11.4501
▁frío	-11.4501
▁renta	-11.4502
▁stage	-11.4502
▁virus	-11.4502
▁douce	-11.4503
▁تعيش	-11.4504
aste	-11.4504
▁الولد	-11.4504
صيب	-11.4505
Ob	-11.4509
QA	-11.451
▁ينفع	-11.4513
assurer	-11.4521
ايل	-11.4523
▁تغ	-11.4524
▁TURNED	-11.4524
▁présenté	-11.4526
▁مقطع	-11.4527
▁التسويق	-11.4528
▁naturelle	-11.4529
▁اليهود	-11.4529
▁faudrait	-11.4531
فاصل	-11.4532
VJ	-11.4539
▁جهة	-11.454
▁cumpli	-11.454
▁astuces	-11.454
▁بقت	-11.4541
▁démarche	-11.4542
ificar	-11.4542
▁ويعني	-11.4542
▁teatro	-11.4542
▁BASICALLY	-11.4542
Jf	-11.4543
gJ	-11.4544
▁عائل	-11.4544
▁km	-11.4546
▁بهال	-11.455
▁OFFICE	-11.455
▁INVEST	-11.4556
▁milliers	-11.4556
▁خطة	-11.4556
▁líder	-11.4556
▁marcher	-11.4556
▁نصف	-11.4557
PC	-11.4558
لوم	-11.456
▁Avant	-11.4562
▁esperando	-11.4565
HER	-11.4566
ificación	-11.4566
▁boule	-11.4568
▁OBJECT	-11.457
▁SPECIAL	-11.457
▁وفق	-11.457
ستاذ	-11.4571
Kg	-11.4572
essayer	-11.4573
▁suivant	-11.4578
بنى	-11.4579
▁carré	-11.4579
▁scolaire	-11.4583
▁construit	-11.4584
▁membres	-11.4584
LX	-11.4584
▁edición	-11.4587
▁طاقة	-11.459
فلام	-11.4594
▁وخلي	-11.4594
▁entier	-11.4594
▁noticia	-11.4596
▁الأساسي	-11.4597
▁consecuencia	-11.4597
▁relativement	-11.4597
ning	-11.4597
▁الجملة	-11.4599
▁كافي	-11.4601
▁profond	-11.4602
عال	-11.4602
éch	-11.4608
▁الدولي	-11.4609
▁majorité	-11.4611
▁medicina	-11.4611
▁الاشياء	-11.4611
▁COLOR	-11.4611
▁Juan	-11.4611
▁debajo	-11.4611
غرق	-11.4612
▁sabor	-11.4615
حماية	-11.462
▁السابق	-11.4623
▁EXPLAIN	-11.4625
▁quatrième	-11.4625
▁EITHER	-11.4625
▁كاميرا	-11.4628
jK	-11.4628
▁أعلم	-11.4628
▁وقفت	-11.4629
▁فعليا	-11.463
▁merece	-11.4632
NF	-11.4633
culo	-11.4633
قمة	-11.4634
LK	-11.4635
Gb	-11.4638
▁dependiendo	-11.4639
UY	-11.464
▁فرص	-11.4641
ération	-11.4642
▁الدورة	-11.4652
▁APPROACH	-11.4652
▁diminu	-11.4653
exprimer	-11.4654
▁بنعمل	-11.4657
▁descubrir	-11.4658
▁consumo	-11.4658
▁ليلة	-11.466
▁imaginar	-11.466
سكو	-11.4663
▁القديمة	-11.4665
▁وخلاص	-11.4666
▁conflicto	-11.4666
▁incorpora	-11.4666
▁pouvais	-11.4666
اسم	-11.4666
▁بالذات	-11.4666
tQ	-11.4668
▁siete	-11.4668
▁dieu	-11.467
▁entiendo	-11.4671
▁preparado	-11.4672
VW	-11.4674
Wu	-11.4674
▁talento	-11.4674
▁لابد	-11.4675
▁وأنه	-11.4679
▁seguimos	-11.468
▁SITTING	-11.4681
▁وقبل	-11.4681
▁régime	-11.4681
rice	-11.4682
توتر	-11.4682
▁alma	-11.4687
▁الجميل	-11.4689
tín	-11.469
▁الجلد	-11.4691
educa	-11.4692
▁auprès	-11.4694
▁langage	-11.4694
▁leyendo	-11.4695
lw	-11.4695
▁رسمي	-11.4698
RAY	-11.4702
UQ	-11.4703
غرام	-11.4706
idéal	-11.4707
▁العلاقات	-11.4708
mw	-11.4709
ENCY	-11.4709
▁SUN	-11.4717
▁MESSAGE	-11.4722
▁espiritual	-11.4722
▁distance	-11.4722
▁pêche	-11.4722
▁الحلقات	-11.4723
XV	-11.4723
▁POOR	-11.4727
رسال	-11.4729
▁surprise	-11.4729
▁concreto	-11.4729
▁عاملة	-11.4731
xP	-11.4731
▁différente	-11.4735
▁remplace	-11.4736
▁WEEKS	-11.4737
▁collab	-11.4737
ambiance	-11.4737
gX	-11.4741
▁PATH	-11.4742
زق	-11.4742
▁larga	-11.4743
قارب	-11.4746
▁tribu	-11.4746
▁SYSTEMS	-11.4747
رحب	-11.4748
zmoi	-11.4749
▁complet	-11.475
▁روسيا	-11.4751
▁errores	-11.4752
▁sentimiento	-11.4752
▁nace	-11.4753
لاج	-11.4754
▁vieux	-11.4756
جزئ	-11.4756
▁celuilà	-11.4756
مارك	-11.4757
طال	-11.4758
▁مباشر	-11.4758
bU	-11.4758
jE	-11.4759
▁sor	-11.4759
▁banca	-11.4761
▁chico	-11.4761
▁عملوا	-11.4763
▁AFFECT	-11.4764
▁televisión	-11.4764
▁الاهلي	-11.4766
▁التع	-11.477
▁وبعض	-11.4776
mble	-11.4776
Pp	-11.4777
▁foi	-11.4777
ampli	-11.478
▁deporte	-11.4783
▁disfruta	-11.4785
غضب	-11.4785
▁الفقر	-11.4792
▁espectacular	-11.4792
▁pendiente	-11.4792
▁Luego	-11.4792
▁PRISON	-11.4792
▁discours	-11.4793
▁tranquille	-11.4793
▁المشاهدين	-11.4796
▁PATIENTS	-11.48
ستجرام	-11.4801
▁توك	-11.4804
lation	-11.4805
▁تفتح	-11.4805
▁fascina	-11.4806
راع	-11.4808
▁دبي	-11.4809
▁صديقي	-11.481
▁TELLING	-11.4812
▁lejos	-11.4814
▁préfér	-11.4814
▁كري	-11.4815
kin	-11.4822
▁العديد	-11.4823
▁contrato	-11.4825
▁MENTAL	-11.4826
yA	-11.4829
▁básica	-11.4831
فرع	-11.4833
▁ENGAGE	-11.4834
▁Tengo	-11.4835
سرق	-11.4835
▁تحديدا	-11.4835
▁Sauf	-11.4836
▁pauvre	-11.4836
▁الأفلام	-11.4838
▁hablo	-11.4842
▁faux	-11.4844
▁TERM	-11.4846
تكرر	-11.4848
▁raro	-11.4848
▁maravilloso	-11.4848
▁estuvo	-11.4848
▁دليل	-11.485
▁التلفزيون	-11.4851
▁سويت	-11.4854
▁معقول	-11.4858
LER	-11.486
tech	-11.486
▁Deuxième	-11.4862
▁ENGINEER	-11.4862
▁croissance	-11.4863
▁RAISE	-11.4863
▁أرى	-11.4864
▁mandar	-11.4866
▁ورجع	-11.4871
▁بقولك	-11.4872
▁définition	-11.4875
▁emprendimiento	-11.4877
▁independiente	-11.4877
▁hasard	-11.4878
▁parfaitement	-11.4878
▁particulière	-11.4881
▁celleci	-11.4884
bj	-11.4884
▁يأ	-11.4885
▁moteur	-11.4887
▁inicial	-11.4888
Yz	-11.4889
بشر	-11.4889
▁حاس	-11.4889
inspire	-11.4891
▁يحس	-11.4893
▁فح	-11.4893
▁viva	-11.4895
▁SAVE	-11.4896
▁durée	-11.4896
▁التركي	-11.4896
▁forêt	-11.4905
▁الوسط	-11.4907
▁llaman	-11.4909
▁SEEING	-11.4911
▁rosa	-11.4912
hydr	-11.4913
▁بينما	-11.4915
▁نكمل	-11.4919
▁alternativa	-11.4919
▁bijoux	-11.4919
▁lesquels	-11.4919
▁ALONE	-11.492
أخطاء	-11.492
arriver	-11.4921
▁المخرج	-11.4923
▁MOVEMENT	-11.4923
نشاء	-11.4923
FLA	-11.4924
▁superficie	-11.4934
▁flash	-11.4935
▁سيدي	-11.4936
▁تضع	-11.4937
▁récupérer	-11.4938
▁venez	-11.4939
▁للف	-11.4942
▁explora	-11.4943
لمس	-11.4944
▁إج	-11.4946
▁EUROPE	-11.4948
adapter	-11.4948
كتف	-11.4948
arbre	-11.4948
▁patron	-11.4948
▁repart	-11.4949
▁balance	-11.4949
▁نسوي	-11.4953
▁écoles	-11.4953
▁لطيف	-11.4954
جاد	-11.4958
QX	-11.4959
▁عاملين	-11.4962
▁WHITE	-11.4962
▁terror	-11.4962
▁يشتر	-11.4963
▁أدخل	-11.4965
lect	-11.4969
▁principalmente	-11.4972
IJ	-11.4975
▁féminin	-11.4976
▁provoca	-11.4977
يكل	-11.4979
IZATION	-11.4988
HC	-11.4989
▁mettrai	-11.499
lín	-11.499
▁volonté	-11.4991
رمز	-11.4991
▁découvre	-11.4991
▁ocho	-11.4994
فاف	-11.4997
▁الأخ	-11.5002
▁بتاعتها	-11.5003
▁voile	-11.5005
▁امتحان	-11.5005
▁gris	-11.5005
▁entière	-11.5006
▁soyez	-11.5007
حزن	-11.5008
▁fixe	-11.501
▁تاع	-11.5012
▁وشوف	-11.5013
راج	-11.5014
▁podrían	-11.5016
tón	-11.5016
▁tasa	-11.5017
أسف	-11.5019
▁estrella	-11.5019
▁origen	-11.502
درك	-11.5021
enlever	-11.5022
▁CONNECT	-11.5034
▁fameux	-11.5034
▁preparar	-11.5035
▁التعامل	-11.5036
▁presión	-11.5037
QQ	-11.5038
▁الثلاثة	-11.5038
▁azul	-11.504
قيد	-11.504
عراق	-11.5042
▁مبسوط	-11.5043
▁أستطيع	-11.5043
▁corte	-11.5044
▁بروح	-11.5046
كمبيوتر	-11.5048
▁iglesia	-11.5048
▁weekend	-11.5048
▁PAPER	-11.5049
راني	-11.5051
▁النقد	-11.5054
UO	-11.5055
▁transformer	-11.5058
▁الجمال	-11.5058
▁يسوي	-11.506
▁بكر	-11.5061
▁Claro	-11.5063
UNG	-11.5069
Fb	-11.5071
▁correcto	-11.5072
▁plano	-11.5075
▁colocar	-11.5075
▁وتكون	-11.5077
gráfica	-11.5077
▁الانترنت	-11.5077
▁decidí	-11.5077
ملايين	-11.5078
▁اطلع	-11.5079
▁تركيا	-11.5079
quin	-11.508
أمن	-11.5085
bh	-11.5085
intégrer	-11.5086
▁ورق	-11.5087
▁joué	-11.5089
▁WORTH	-11.5092
▁computadora	-11.5092
▁hablado	-11.5092
▁corri	-11.5092
▁ناجح	-11.5092
▁SCAR	-11.5095
تنوع	-11.5096
▁PARA	-11.51
MX	-11.5101
Mx	-11.5102
▁acteurs	-11.5103
غنى	-11.5105
vW	-11.5105
▁publié	-11.5106
XA	-11.5107
رجل	-11.5109
▁accessible	-11.5121
▁colección	-11.5121
usage	-11.5121
▁الاعت	-11.5122
مجهود	-11.5123
▁Can	-11.5123
wG	-11.5125
▁pensado	-11.5126
▁incluye	-11.5128
▁desea	-11.5129
▁hayan	-11.5132
Ec	-11.5133
▁responsabilité	-11.5135
ثور	-11.5135
▁ROLE	-11.5136
غرف	-11.5139
وصي	-11.5146
▁بيقدر	-11.5148
ختيار	-11.5148
سند	-11.5148
ويد	-11.515
▁NEAR	-11.5152
▁receta	-11.5152
llar	-11.5153
▁الاخ	-11.5155
▁نظرية	-11.5156
▁البيض	-11.5157
▁جملة	-11.5158
▁TERMS	-11.516
▁correct	-11.5164
▁rencontré	-11.5164
▁retrouvé	-11.5164
▁periodo	-11.5164
RH	-11.5164
▁tutorial	-11.5165
فاعل	-11.5167
mino	-11.5167
▁فكرت	-11.5169
▁moto	-11.5172
▁محا	-11.5172
▁ressort	-11.5179
▁SAT	-11.5179
ندر	-11.5179
Ew	-11.5181
▁عص	-11.5186
accept	-11.5188
▁سألت	-11.519
press	-11.519
▁أرد	-11.5192
▁montagne	-11.5193
tilla	-11.5196
▁أقدم	-11.5196
Nw	-11.5199
▁sienta	-11.5205
Jw	-11.5206
▁وتح	-11.5206
وند	-11.5206
▁ADULT	-11.5208
▁الظروف	-11.5208
▁الولايات	-11.5208
▁العلاج	-11.521
▁الإسرائيلي	-11.5214
▁seguido	-11.5216
ification	-11.5218
تقييم	-11.5222
فطر	-11.5222
▁adentro	-11.5223
▁diálogo	-11.5223
▁envoyé	-11.5223
▁pensamos	-11.5223
Vx	-11.5224
▁coger	-11.5224
▁escena	-11.5224
▁KNOWN	-11.5225
▁بتحس	-11.5227
▁RULE	-11.5232
حضار	-11.5233
Bw	-11.5233
▁ámbito	-11.5237
▁SEXUAL	-11.5237
▁sensation	-11.5238
فجر	-11.5239
▁هدا	-11.524
çon	-11.524
CX	-11.5241
▁verre	-11.5241
▁ciento	-11.5244
نغ	-11.5247
▁posibilidades	-11.5247
كرر	-11.5248
blé	-11.5251
▁couple	-11.5251
▁déf	-11.5254
ذكاء	-11.5254
حيل	-11.5259
▁كرم	-11.5259
▁الأمن	-11.526
▁probable	-11.526
▁فبي	-11.526
رخص	-11.5261
▁MEET	-11.5261
▁vengo	-11.5262
▁بيشتغل	-11.5266
atch	-11.5266
▁COMMUNITIES	-11.5267
▁ITSELF	-11.5267
▁complejo	-11.5267
▁fruta	-11.5267
▁الامريكي	-11.5268
pU	-11.527
▁تتعامل	-11.5272
▁القطاع	-11.5272
▁lleno	-11.528
▁مناسبة	-11.5282
▁الطلاب	-11.5282
impact	-11.5289
accepter	-11.5293
▁abierto	-11.5296
▁definir	-11.5296
▁danger	-11.5298
شارع	-11.53
▁hoja	-11.5301
▁اللاعب	-11.5302
▁INTERACT	-11.5303
است	-11.5306
طح	-11.5307
▁tableau	-11.5308
tienne	-11.5309
▁يزيد	-11.531
▁Madrid	-11.5311
▁CHOOSE	-11.5311
hj	-11.5311
▁famoso	-11.5312
▁الصد	-11.5312
▁pared	-11.5314
oreille	-11.5315
▁bateau	-11.5315
▁العالي	-11.532
▁FORWARD	-11.532
bQ	-11.5322
▁باللي	-11.5323
▁اربعة	-11.5324
encourage	-11.5326
▁Colombia	-11.5326
▁والكلام	-11.5327
▁استمر	-11.5329
TJ	-11.533
▁أسأل	-11.533
▁iban	-11.533
▁محدد	-11.5331
▁البشرية	-11.5331
Cq	-11.5334
▁اعطي	-11.5334
ثقافة	-11.5334
▁الحلو	-11.5335
▁canta	-11.5338
▁categoría	-11.5341
▁japonais	-11.5341
▁ocasiones	-11.5341
▁إبراهيم	-11.5341
▁perfil	-11.5341
▁اولا	-11.5347
▁flor	-11.5348
cI	-11.5351
زون	-11.5351
engage	-11.5352
▁segura	-11.5353
▁luna	-11.5354
absolu	-11.5354
offrir	-11.5356
▁coloca	-11.536
▁siguen	-11.536
▁chocolate	-11.5361
gM	-11.5362
▁ganado	-11.5362
▁بتلاقي	-11.5363
▁الاخير	-11.5365
▁الأمريكي	-11.5367
lJ	-11.5368
▁sucre	-11.5369
▁HOSPITAL	-11.5371
▁idioma	-11.5371
▁LIMIT	-11.5371
▁violence	-11.5371
ثناء	-11.5375
exposition	-11.5376
▁ملح	-11.5377
Nm	-11.5377
صوص	-11.5378
ístico	-11.5379
▁interna	-11.538
وصول	-11.5381
hou	-11.5382
▁رأيي	-11.5382
▁SEND	-11.5385
ológico	-11.5385
▁dommage	-11.5385
▁littéraire	-11.5385
▁SUCCESS	-11.5386
▁بكون	-11.5387
capacit	-11.5389
gido	-11.539
▁ISSUES	-11.5391
▁STUDENT	-11.5392
▁حج	-11.5392
▁جيدا	-11.5393
ographie	-11.5394
cyc	-11.5395
مراض	-11.5395
étend	-11.5395
cam	-11.5397
verse	-11.5398
▁DARK	-11.54
▁boutique	-11.5401
elli	-11.5402
▁فهنا	-11.5406
تكلف	-11.5408
▁نعطي	-11.5411
نشأ	-11.5414
▁salga	-11.5414
▁Argentina	-11.5415
▁guillemets	-11.5415
عشر	-11.5418
▁أروح	-11.5427
فراد	-11.5429
▁للج	-11.5429
▁actitud	-11.543
▁ritmo	-11.5431
▁الماضية	-11.5431
▁مسلم	-11.5433
HH	-11.5434
▁IMPROVE	-11.5435
▁كاين	-11.5436
موس	-11.5437
▁كلمت	-11.5439
▁تشاهد	-11.544
▁بصير	-11.5441
درج	-11.5441
حور	-11.5443
▁الدعم	-11.5444
▁equivoca	-11.5445
▁negativo	-11.5445
▁derecha	-11.5446
▁robe	-11.5449
WG	-11.545
Ei	-11.5453
▁عدنا	-11.5456
Cf	-11.5457
▁comportamiento	-11.5461
▁الأساس	-11.5467
ضايق	-11.5469
oU	-11.5469
▁ONLINE	-11.547
▁salon	-11.5472
▁COMPLEX	-11.5475
▁honnêtement	-11.5477
▁Col	-11.5478
▁بقال	-11.5484
▁مصاري	-11.5484
▁التالي	-11.5484
دوس	-11.5484
moni	-11.5485
▁TURNS	-11.5486
▁Star	-11.5488
▁gratis	-11.549
▁insist	-11.5494
شوار	-11.5495
lise	-11.5496
verg	-11.5497
▁pein	-11.5497
vL	-11.5499
Zg	-11.5501
▁جاءت	-11.5503
KL	-11.5505
lógico	-11.5505
▁Bienvenidos	-11.5505
▁الألوان	-11.5506
▁transforma	-11.5506
▁profil	-11.5508
MZ	-11.5511
▁غالبا	-11.5512
▁pop	-11.5514
Qk	-11.5517
▁generalmente	-11.5518
▁cort	-11.5519
▁toucher	-11.5522
▁أسباب	-11.5523
infos	-11.5527
▁LIKELY	-11.5528
▁bain	-11.5529
jc	-11.5534
ouvrage	-11.5536
▁réfléchi	-11.5536
▁geste	-11.554
▁هعمل	-11.5541
qZ	-11.5541
صاحب	-11.5542
▁رحلة	-11.5543
▁arrêté	-11.5543
▁فالم	-11.5544
▁conocen	-11.5546
▁الحص	-11.5547
▁compro	-11.5549
▁celebra	-11.5551
Hf	-11.5551
▁TAKEN	-11.5558
موبايل	-11.5559
▁حالات	-11.5562
▁OFFER	-11.5563
▁thématique	-11.5566
▁Apple	-11.5566
▁المقاومة	-11.5567
▁GUYS	-11.5569
▁Tú	-11.5571
étranger	-11.5571
وكس	-11.5572
▁motivation	-11.5573
تلاقو	-11.5578
ROU	-11.5579
▁négatif	-11.5581
▁TOWARDS	-11.5581
▁baño	-11.5582
▁CUT	-11.5583
▁jugador	-11.5583
anglais	-11.5584
▁relacionado	-11.5585
▁enfermedades	-11.5587
▁شاي	-11.5587
▁أساسا	-11.5591
جئ	-11.5591
بث	-11.5593
YU	-11.5595
▁perro	-11.5596
▁TAUGHT	-11.5596
▁positive	-11.5596
▁récemment	-11.5596
▁طالما	-11.5597
▁النبات	-11.5602
▁estética	-11.5603
▁factores	-11.5608
▁نوعا	-11.5609
▁NETWORK	-11.5612
▁حرفيا	-11.5612
▁إس	-11.5614
▁يحط	-11.5618
▁ciudades	-11.5618
▁expone	-11.5619
▁fondamental	-11.5619
▁instrumento	-11.562
▁sangre	-11.562
▁maneja	-11.5621
▁لمن	-11.5623
▁يوميا	-11.5623
mg	-11.5625
▁logiciel	-11.5627
▁MULTI	-11.5627
لخص	-11.5628
▁clara	-11.5628
▁conclu	-11.5631
▁conversa	-11.5631
▁بالبيت	-11.5632
industrie	-11.5636
bilis	-11.5636
uela	-11.5641
غت	-11.5641
▁الصغير	-11.5642
▁Franchement	-11.5642
▁librairie	-11.5642
▁capaces	-11.5642
▁gestión	-11.5642
wb	-11.5646
▁RAP	-11.5648
▁تربي	-11.565
▁insta	-11.565
▁CENTER	-11.5651
▁escritor	-11.5651
HUM	-11.5651
▁هقولك	-11.5654
▁acceder	-11.5658
▁lesquelles	-11.5658
▁acabo	-11.5658
▁componente	-11.5658
jG	-11.5658
▁géo	-11.5659
▁propiedad	-11.5659
▁daño	-11.5661
▁paix	-11.5661
▁controlar	-11.5662
▁carrément	-11.5662
▁encuentran	-11.5669
▁lutte	-11.5669
▁mondiale	-11.5669
▁YEAH	-11.5673
▁برامج	-11.5673
▁ubica	-11.5673
▁reseña	-11.5674
astuce	-11.5675
غان	-11.5675
▁الصغيرة	-11.5677
qY	-11.568
▁CONNECTION	-11.5682
VH	-11.5685
سوس	-11.5685
▁EQUAL	-11.5685
▁profesionales	-11.5687
▁ESPECIALLY	-11.5688
▁botón	-11.569
حكام	-11.569
رث	-11.5692
▁وليه	-11.5693
UX	-11.5698
▁الدوري	-11.5699
▁نايم	-11.57
فرج	-11.5701
cate	-11.5702
▁SUFFER	-11.5704
▁construction	-11.5704
▁réduire	-11.5704
▁parque	-11.5705
kV	-11.5708
vic	-11.5709
▁Estado	-11.5709
organiser	-11.571
▁beaux	-11.5714
تكوين	-11.5715
Xj	-11.5716
▁مواد	-11.5718
▁AWARE	-11.5719
▁ilumina	-11.572
▁والحمد	-11.572
▁vousmême	-11.5721
▁sombra	-11.5721
▁devait	-11.5721
▁حكيت	-11.5722
نظف	-11.5722
▁retro	-11.5724
▁منتجات	-11.5725
▁DOOR	-11.5729
PW	-11.573
▁القصص	-11.5732
▁perdido	-11.5734
▁التمرين	-11.5735
▁تدريب	-11.5736
▁enamora	-11.5736
▁حقيقية	-11.5739
Ng	-11.574
▁dirección	-11.574
RF	-11.574
▁عايشين	-11.5741
باح	-11.5741
قان	-11.5745
▁تلت	-11.5746
gt	-11.5746
▁BUILT	-11.575
▁température	-11.575
▁يحكي	-11.575
▁وإلى	-11.5751
▁New	-11.5752
▁suena	-11.5755
▁جوجل	-11.5755
▁متى	-11.5756
▁imaginer	-11.576
▁AUDIENCE	-11.5765
▁multiplica	-11.5766
▁nourriture	-11.5766
▁connaissent	-11.5766
▁aprendido	-11.5768
▁Fre	-11.5769
▁مبسوطة	-11.5771
xI	-11.5775
▁foisci	-11.5776
▁manipula	-11.5781
▁técnico	-11.5781
▁religion	-11.5781
▁quartier	-11.5781
▁bouquin	-11.5781
▁paz	-11.5782
xO	-11.5784
رقص	-11.5784
PLACE	-11.5786
▁وتعمل	-11.5786
▁اشتغلت	-11.5787
épreuve	-11.5796
▁MATERIAL	-11.5796
▁OBVIOUS	-11.5796
PJ	-11.5797
▁campagne	-11.5797
▁iniciar	-11.5799
▁أبدأ	-11.5801
▁encarga	-11.5804
ستطيع	-11.5805
wh	-11.5808
▁Uno	-11.5808
قتنع	-11.5811
▁BEGINNING	-11.5812
iV	-11.5814
عيل	-11.5816
▁تدفع	-11.5817
▁الوصول	-11.582
▁emplea	-11.582
opéra	-11.5824
mc	-11.5824
JP	-11.5826
▁BLOOD	-11.5828
▁parallèle	-11.5828
▁أصدقاء	-11.5828
▁نحو	-11.583
indé	-11.583
▁المحا	-11.5834
▁amené	-11.5835
bL	-11.5837
▁CELL	-11.5837
ديان	-11.584
américa	-11.5842
▁résumé	-11.5843
▁creciendo	-11.5843
core	-11.5845
▁viajar	-11.5845
▁القرن	-11.5847
▁identificar	-11.5847
باحث	-11.5848
▁vía	-11.5849
▁اختبار	-11.585
▁SKILLS	-11.5851
فرنس	-11.5852
tró	-11.5856
▁rejoindre	-11.5859
▁المصريين	-11.586
▁طبيعة	-11.586
XG	-11.5861
▁بصورة	-11.5862
▁يرحمه	-11.5862
▁شم	-11.5868
▁يريدون	-11.5869
فوق	-11.5871
▁emocion	-11.5871
▁parlent	-11.5874
▁compagnie	-11.5874
▁PUSH	-11.5875
allez	-11.5875
▁mueve	-11.5876
▁breve	-11.5877
▁alimentaire	-11.5877
▁EMOTION	-11.5885
▁BASIC	-11.589
▁TRANSFORM	-11.589
automne	-11.589
▁الرسالة	-11.589
▁cloche	-11.5891
▁majeur	-11.5891
▁السادس	-11.5891
▁أهداف	-11.5892
▁dedicar	-11.5894
▁decide	-11.5897
▁alcanzar	-11.5898
▁الطرق	-11.5899
▁encontré	-11.5899
▁العلمية	-11.5902
rain	-11.5904
▁compétence	-11.5908
▁experto	-11.5909
human	-11.5911
▁لوحده	-11.5911
لل	-11.5912
▁فري	-11.5912
▁بتاعتنا	-11.5913
pati	-11.5915
▁INCREASE	-11.5922
▁apprécié	-11.5922
▁horrible	-11.5922
▁الاثنين	-11.5922
jw	-11.5926
▁conseiller	-11.5926
▁testé	-11.5929
▁اقت	-11.593
pura	-11.5931
خرب	-11.5931
خلط	-11.5932
▁NICE	-11.5932
▁rappeler	-11.5933
▁BENEFIT	-11.5937
▁fiscal	-11.5937
ICALLY	-11.594
▁coco	-11.5941
▁JOURNEY	-11.5953
▁Twitter	-11.5953
électro	-11.5954
plica	-11.5957
▁balle	-11.5959
▁individual	-11.596
artiste	-11.5966
زيل	-11.5967
▁SLEEP	-11.5969
món	-11.5969
▁الخطوة	-11.5971
بعاد	-11.5971
▁أقرأ	-11.5971
مسح	-11.5976
actualité	-11.5978
▁quieran	-11.5978
▁mille	-11.5982
▁اقدر	-11.5983
▁REQUIRE	-11.5985
▁dimanche	-11.5985
▁يذهب	-11.5987
بج	-11.5988
Um	-11.5991
توازن	-11.5992
▁تسعة	-11.5993
▁شون	-11.5993
fR	-11.5994
▁الوحيدة	-11.5996
IZING	-11.5998
▁الصيف	-11.5999
▁participar	-11.6001
▁protection	-11.6001
▁électrique	-11.6001
▁ممنوع	-11.6001
▁cáncer	-11.6001
▁وخاصة	-11.6001
wv	-11.6002
سعى	-11.6003
▁تمرين	-11.6003
Vk	-11.6004
Fg	-11.6004
▁Desde	-11.6005
▁البلاد	-11.6006
▁المغربية	-11.6006
amine	-11.6009
▁BOOKS	-11.6011
▁bruit	-11.6013
جماهير	-11.6016
KF	-11.6017
▁المرض	-11.6017
رتاح	-11.6019
▁DAD	-11.602
▁niveles	-11.602
▁bouche	-11.6022
▁بتقدر	-11.6023
ساهم	-11.6025
YB	-11.6028
▁نفهم	-11.6029
QE	-11.603
▁muscle	-11.6032
▁comparti	-11.6033
▁efectivamente	-11.6033
▁cansa	-11.6034
▁facteur	-11.604
ville	-11.6043
▁MEASURE	-11.6048
▁vocabulaire	-11.6048
▁SOUTH	-11.605
▁وأكيد	-11.6053
▁echar	-11.6059
▁TikTok	-11.6064
▁colombia	-11.6064
▁vivimos	-11.6064
▁heureuse	-11.6065
▁continuación	-11.6069
عاب	-11.6075
▁وكما	-11.6075
Fx	-11.6076
AO	-11.6077
▁BREATH	-11.608
▁الزمالك	-11.608
▁Mor	-11.6084
▁visuel	-11.6085
Isra	-11.6085
تردد	-11.6089
▁HIT	-11.6092
▁dejado	-11.6092
▁CHANGING	-11.6096
▁RECORD	-11.6096
▁lendemain	-11.6096
▁الخدمة	-11.6097
▁ciclo	-11.6097
enquête	-11.6097
نر	-11.6097
▁أهمية	-11.61
اليا	-11.61
▁souhaitez	-11.6103
établi	-11.6104
HP	-11.6105
▁الولاد	-11.6106
▁GROWING	-11.6107
▁انسان	-11.611
تجنب	-11.611
iPhone	-11.6112
▁commercial	-11.6112
▁ونفس	-11.6112
▁Cela	-11.6116
▁revoir	-11.6119
XR	-11.6119
▁signo	-11.6121
جلد	-11.6123
▁محتاجين	-11.6123
▁نبي	-11.6126
▁construcción	-11.6128
▁légende	-11.6128
▁associé	-11.6128
▁prennent	-11.6128
▁NATIONAL	-11.6128
▁JOIN	-11.6129
فال	-11.613
▁تعليق	-11.6131
jN	-11.6143
▁pain	-11.6144
▁literatura	-11.6144
▁inclusive	-11.6144
▁عسكري	-11.6146
▁amplia	-11.615
خصائ	-11.6151
▁تركز	-11.6152
ريكا	-11.6152
▁escuchado	-11.6153
▁venido	-11.6154
TEEN	-11.6158
▁TEND	-11.6159
▁actuelle	-11.6161
▁باست	-11.6164
مجموعة	-11.6166
▁كأ	-11.6167
زلت	-11.6167
▁يفتح	-11.6171
▁مشاعر	-11.6173
▁التليفون	-11.6177
▁campaña	-11.6177
▁tombé	-11.6177
▁domingo	-11.6181
▁salut	-11.6181
▁rojo	-11.6182
▁GONE	-11.6186
▁بيقولك	-11.6188
▁INDIA	-11.6191
تراجع	-11.6191
gF	-11.6191
▁lengua	-11.6192
▁selecciona	-11.6193
▁América	-11.6193
▁quisiera	-11.6194
orange	-11.6197
جير	-11.6199
▁Gal	-11.6199
طرب	-11.62
égalité	-11.6202
زوم	-11.6203
وكم	-11.6203
YH	-11.6207
▁personnalité	-11.6209
YY	-11.6209
▁focal	-11.621
▁وسائل	-11.621
▁aprendiendo	-11.6211
▁حاولت	-11.6211
▁شمال	-11.6216
informatique	-11.622
▁financière	-11.6225
▁PERSPECTIVE	-11.6225
identité	-11.6225
▁الأغنية	-11.6225
▁يخص	-11.6226
زعج	-11.6226
▁RICH	-11.6229
JY	-11.6232
▁ببعض	-11.6233
▁guía	-11.6237
▁refiero	-11.6241
▁بساطة	-11.6242
▁معلش	-11.6242
مثيل	-11.6243
▁الوجه	-11.6247
vk	-11.625
▁واسع	-11.6253
▁verrez	-11.6254
▁vimos	-11.6255
▁rajouter	-11.6258
▁تحليل	-11.6258
▁Bah	-11.6258
▁educativo	-11.6258
▁REPORT	-11.6259
▁automatique	-11.626
▁refaire	-11.6261
▁tratando	-11.6262
▁POST	-11.6265
▁خلصنا	-11.6266
▁apoya	-11.6267
▁Otro	-11.6268
▁قولي	-11.6268
europe	-11.6272
▁gagné	-11.6274
espoir	-11.6275
JC	-11.6276
▁Hasta	-11.6276
▁تعرفون	-11.6278
▁sachant	-11.628
▁señora	-11.6281
هجم	-11.6282
▁aquella	-11.6287
ليون	-11.6287
▁YORK	-11.629
▁llora	-11.6291
▁mettent	-11.6294
▁formato	-11.6294
▁únicamente	-11.6296
▁NEURO	-11.6297
▁جامد	-11.6299
▁DISCOVER	-11.6301
▁ISSUE	-11.6302
أحلام	-11.6303
▁financiero	-11.6304
▁répét	-11.6305
فارق	-11.6305
▁SPECIES	-11.6307
▁barato	-11.6307
▁FILM	-11.6307
▁RUNNING	-11.6307
▁أخذت	-11.6308
▁الرابعة	-11.6308
ayu	-11.6311
▁الجنوب	-11.6312
ZC	-11.6314
▁والحاجات	-11.6314
▁خمسين	-11.6314
▁oublier	-11.6315
▁الشاب	-11.6318
avion	-11.6318
▁pardon	-11.6318
Lb	-11.6321
▁làdedans	-11.6323
▁juega	-11.6324
▁courage	-11.6326
▁عيال	-11.6328
▁salaire	-11.6328
▁Quel	-11.6329
copi	-11.633
▁Toda	-11.6333
▁السماء	-11.6334
occuper	-11.6335
stig	-11.634
▁بالإضافة	-11.6344
▁encontrado	-11.6344
▁transformar	-11.6344
ختصر	-11.6348
▁التخصص	-11.6351
سامح	-11.6351
fort	-11.6353
▁ACHIEVE	-11.6356
▁contamina	-11.6356
▁المتوسط	-11.6356
ديم	-11.6356
▁ظروف	-11.6356
راث	-11.6357
▁وعلي	-11.6357
▁شلون	-11.6361
▁صورت	-11.6361
▁climatique	-11.6361
▁disco	-11.6365
▁مدرب	-11.6366
▁بنتكلم	-11.6368
Franc	-11.6368
▁الضوء	-11.6369
▁Estoy	-11.6372
▁يتعامل	-11.6372
▁denomina	-11.6372
▁pierde	-11.6372
▁يعرفون	-11.6374
▁quedado	-11.6375
حذر	-11.6377
Ow	-11.638
لتزم	-11.6381
▁comunica	-11.6383
▁مرتين	-11.6384
▁TRAIN	-11.6387
▁INDUSTRY	-11.6389
▁RECOGNIZE	-11.6389
▁ولذلك	-11.6389
▁OCEAN	-11.6389
▁boulot	-11.6389
éva	-11.6389
▁restaurante	-11.6393
gL	-11.6393
▁roi	-11.6397
iA	-11.6398
Gg	-11.64
▁ثقة	-11.6401
▁PEN	-11.6404
▁Gracias	-11.6405
▁BROUGHT	-11.6405
▁EIGHT	-11.6416
▁SLOW	-11.6418
kJ	-11.6418
▁الممكن	-11.6419
▁ورقة	-11.6419
ستنى	-11.6421
▁mécanique	-11.6422
▁Canada	-11.6423
تنقل	-11.6429
خار	-11.6433
Og	-11.6433
قرا	-11.6433
▁كبار	-11.6434
▁passent	-11.6438
▁loup	-11.6438
éné	-11.6438
▁CHARACTER	-11.6438
▁Her	-11.6439
خبط	-11.644
gY	-11.6442
▁الآخرين	-11.6444
IFIED	-11.6447
▁بيشوف	-11.6448
▁divin	-11.6451
▁trouvais	-11.6455
▁fabrique	-11.6455
ándolo	-11.6458
قاف	-11.6462
ائز	-11.6467
دمر	-11.6471
▁Lorsqu	-11.6472
▁الموسيقى	-11.6473
▁vibra	-11.6476
Uc	-11.6479
▁metros	-11.648
itch	-11.6483
▁présentation	-11.6484
▁لليوم	-11.6484
▁bloc	-11.6488
▁android	-11.6488
▁مصادر	-11.6488
▁léger	-11.6489
▁كأس	-11.6491
▁fase	-11.6492
expliquer	-11.6498
زد	-11.6498
▁ستجد	-11.6498
▁الامور	-11.6499
▁بأول	-11.6501
▁identidad	-11.6505
▁tuviera	-11.6505
▁LOVED	-11.6506
▁CAREER	-11.6506
ólogo	-11.6511
▁leçon	-11.6512
▁job	-11.6513
▁MAIN	-11.6513
▁كتبت	-11.6515
▁usando	-11.6521
▁batterie	-11.6521
سيناريو	-11.6522
▁المختلفة	-11.6522
▁بيخلي	-11.6523
▁descarga	-11.6524
حضير	-11.6527
▁فبت	-11.653
ؤكد	-11.6531
▁parlant	-11.6533
axe	-11.6536
habi	-11.6537
▁SERIOUS	-11.6538
▁SIMILAR	-11.6538
▁الغريب	-11.654
ستمع	-11.654
▁إح	-11.6542
organisme	-11.6555
▁pronuncia	-11.6555
▁GENERAL	-11.6555
aff	-11.6557
issait	-11.6559
▁مريض	-11.6561
Hb	-11.6563
qJ	-11.6568
لوش	-11.6569
shop	-11.657
▁Autre	-11.657
▁الزيت	-11.657
▁الكامل	-11.657
▁financiera	-11.6571
▁salen	-11.6571
▁CONDITION	-11.6572
▁acuario	-11.6572
▁إليها	-11.6572
▁DEVELOPMENT	-11.6575
▁أمل	-11.6579
▁القن	-11.658
RP	-11.6584
▁izquierda	-11.6588
▁مطلوب	-11.6589
▁posterior	-11.6589
▁principalement	-11.6592
▁النفسية	-11.6593
▁دعوة	-11.6598
▁أشعر	-11.6598
▁اللاعبين	-11.6603
▁autrement	-11.6603
▁SUSTAIN	-11.6605
▁TRADITION	-11.6605
▁respeto	-11.6605
▁bienestar	-11.6607
hh	-11.6609
▁pensaba	-11.6611
hR	-11.6612
UF	-11.6612
▁carro	-11.6614
▁رابط	-11.6616
فسر	-11.6618
▁habíamos	-11.6622
▁genial	-11.6622
▁mentale	-11.6623
▁TALKED	-11.6623
▁وهن	-11.6631
▁enfrenta	-11.6632
▁لبن	-11.6636
▁هتعمل	-11.6638
▁sachez	-11.6639
▁lector	-11.664
▁المنهج	-11.6641
▁chaleur	-11.6641
▁كول	-11.6642
▁COOL	-11.6645
طموح	-11.6645
esco	-11.665
اوة	-11.6651
▁restaurant	-11.6651
retra	-11.6655
▁reflexion	-11.6656
▁présence	-11.6656
صط	-11.666
▁FISH	-11.6665
▁chocolat	-11.6666
YN	-11.6667
▁تشعر	-11.6669
RAM	-11.6671
وكو	-11.6672
▁SUCCESSFUL	-11.6672
▁Primero	-11.6673
▁souviens	-11.6673
▁disminu	-11.6673
▁calme	-11.6673
océan	-11.6675
▁العلوم	-11.6678
باد	-11.668
▁الحلوة	-11.6681
▁grain	-11.6687
▁لسان	-11.6687
▁موظف	-11.669
épaule	-11.669
▁CURRENT	-11.669
▁DAUGHTER	-11.669
▁بالتفصيل	-11.669
▁gigante	-11.669
▁الوحدة	-11.669
▁GROUND	-11.6691
▁بالكامل	-11.6691
▁identifica	-11.6691
exact	-11.6693
خراج	-11.6693
▁joie	-11.6694
QL	-11.6697
▁Fin	-11.67
▁voisin	-11.6701
▁مرتاح	-11.6703
▁نتمنى	-11.6703
▁أطلع	-11.6703
إضافة	-11.6703
extrême	-11.6707
▁parlait	-11.6707
▁هذول	-11.6707
▁violent	-11.6707
▁saut	-11.6708
▁literalmente	-11.6708
▁favorita	-11.6709
▁ayant	-11.671
▁علاقات	-11.6719
▁بتخلي	-11.672
▁caer	-11.6723
▁campanita	-11.6724
▁merveille	-11.6724
▁monsieur	-11.6724
▁photographie	-11.6724
▁المطلوب	-11.6724
▁trompe	-11.6724
▁habría	-11.6724
▁الفرصة	-11.6726
▁السلطة	-11.6727
▁mediante	-11.6727
▁صناعة	-11.673
▁determinado	-11.673
▁manejar	-11.673
▁عائلة	-11.6733
▁مدام	-11.6735
applique	-11.6737
WU	-11.6741
▁propriété	-11.6741
▁acelera	-11.6741
▁تقديم	-11.6742
▁العقار	-11.6742
arrêt	-11.6744
▁musée	-11.6745
زواج	-11.6745
▁السجن	-11.675
▁الإسلامية	-11.6753
▁rápida	-11.6755
WF	-11.6757
logie	-11.6758
▁espíritu	-11.6758
▁préparation	-11.6758
▁poudre	-11.6759
▁kit	-11.676
▁magia	-11.676
▁cargo	-11.6761
▁يبدو	-11.6762
غفر	-11.6767
▁ésta	-11.6768
بيب	-11.677
▁هنعمل	-11.677
مصلحة	-11.6771
▁talent	-11.6775
▁ساعتها	-11.6775
▁cuestiones	-11.6775
▁secreto	-11.6775
▁كورونا	-11.6775
▁docente	-11.6776
▁laissé	-11.6776
▁الانستجرام	-11.6776
▁voici	-11.6776
▁الزواج	-11.678
▁INTERESTED	-11.6781
لزم	-11.6784
▁suelen	-11.6787
▁crédit	-11.6787
Zh	-11.6791
▁Europa	-11.6792
▁REPRESENT	-11.6792
▁sorpresa	-11.6792
▁المسألة	-11.6793
▁escribe	-11.6793
▁payé	-11.6793
▁instagram	-11.6794
▁dirait	-11.6797
▁أداء	-11.6798
▁معلم	-11.68
▁الاقتصادية	-11.6802
نتقل	-11.6808
▁mourir	-11.681
▁صبايا	-11.681
▁cositas	-11.681
▁مهارات	-11.681
▁الخارجية	-11.681
▁Perú	-11.6811
▁قدمت	-11.6812
▁propone	-11.6816
▁verbe	-11.6816
سواق	-11.6817
▁TREATMENT	-11.6821
▁clés	-11.6821
▁RESOURCES	-11.6822
▁بيحكي	-11.6823
▁اسبوع	-11.6824
▁COMFORT	-11.6827
▁dibuja	-11.6827
▁concernant	-11.6827
position	-11.6828
▁commerce	-11.683
▁HOWEVER	-11.6831
▁ويبقى	-11.6838
ستغرب	-11.684
▁verbo	-11.6843
▁pérdida	-11.6844
octobre	-11.6844
▁FUNCTION	-11.6844
▁financier	-11.6847
▁نسب	-11.6854
CAL	-11.6856
▁يصبح	-11.6857
▁circ	-11.686
▁lèvres	-11.6861
▁transition	-11.6861
▁victime	-11.6861
▁asesor	-11.6862
▁traditionnel	-11.6862
▁essayez	-11.6863
circuit	-11.6863
▁trip	-11.6865
▁continuar	-11.6866
▁سنتحدث	-11.6867
list	-11.6867
زرق	-11.6867
حام	-11.687
▁تجعل	-11.6878
▁CENTURY	-11.6879
▁vehículo	-11.6879
▁conflit	-11.6879
▁بلاش	-11.6882
تحسن	-11.6883
الله	-11.6884
▁بالفيديو	-11.6885
▁colle	-11.6886
▁تفكير	-11.6896
▁لديها	-11.6899
▁erreurs	-11.69
guard	-11.6912
étaient	-11.6913
▁EXPRESS	-11.6914
▁existent	-11.6919
▁bête	-11.6919
▁tío	-11.692
Wh	-11.6922
▁بكلم	-11.6925
▁الخوف	-11.693
▁policía	-11.6931
▁ساعتين	-11.6931
▁pensais	-11.6931
neur	-11.6933
▁قرأت	-11.6935
▁fiche	-11.694
وتو	-11.694
▁expliqué	-11.6941
▁corriente	-11.6942
تجه	-11.6944
▁imagino	-11.6947
▁EXTREME	-11.6948
▁acumula	-11.6948
▁الأوروبي	-11.6948
▁SEVEN	-11.6948
▁NORTH	-11.6949
▁echa	-11.6951
▁فدي	-11.6951
▁FIRE	-11.6954
▁magique	-11.6955
▁moral	-11.6956
ضف	-11.6958
عوض	-11.6959
▁LOSE	-11.696
▁reconocer	-11.6965
▁ravi	-11.6965
▁soluciones	-11.6966
▁CREATING	-11.6966
▁apenas	-11.6966
▁licence	-11.6966
شاشة	-11.6967
▁innovación	-11.6967
▁SOON	-11.6968
▁naturales	-11.697
▁éditions	-11.6973
kj	-11.6979
▁التج	-11.6979
▁بتروح	-11.6982
▁dibujo	-11.6983
▁الدهون	-11.6983
▁رأيت	-11.6984
▁rodea	-11.6984
▁بالعربي	-11.6985
enfance	-11.6985
▁رابع	-11.6986
avaient	-11.6986
▁الحدود	-11.6986
estime	-11.6987
▁مئة	-11.6988
▁قامت	-11.6988
▁حاج	-11.6991
kU	-11.7
▁LAUGH	-11.7001
▁للفيديو	-11.7001
▁CREATIVE	-11.7001
▁pierre	-11.7001
▁ROAD	-11.7001
▁puissent	-11.7002
عرق	-11.7009
▁فج	-11.7012
▁transporte	-11.7016
YJ	-11.7017
▁امام	-11.7018
▁razones	-11.7018
▁formule	-11.7018
▁قادم	-11.7018
▁cerrar	-11.7019
▁ومست	-11.702
▁عمليات	-11.7021
تراب	-11.7029
▁يجد	-11.7029
▁Era	-11.7031
RRI	-11.7032
▁perfecta	-11.7033
▁oficina	-11.7036
▁montaña	-11.7036
▁BABY	-11.7036
▁PARTNER	-11.7037
▁basura	-11.7038
adulte	-11.704
▁vélo	-11.7042
قبال	-11.7043
acteur	-11.7043
▁tirer	-11.7045
gW	-11.7049
ظم	-11.7054
▁BANK	-11.7055
▁يعد	-11.7056
▁نعيش	-11.7058
▁تعد	-11.7059
وجع	-11.7066
▁journal	-11.7067
▁BROKE	-11.7071
▁FAMILIES	-11.7071
▁negativa	-11.7071
▁مقال	-11.7072
▁personalidad	-11.7072
آمن	-11.7076
▁هتقول	-11.7079
سئل	-11.7081
▁تعلمت	-11.7084
راض	-11.7085
▁organisé	-11.7089
▁John	-11.7089
▁متحمس	-11.7089
cg	-11.709
مباريات	-11.7091
▁INTEREST	-11.7096
▁اجتماعي	-11.7097
HF	-11.7102
دعاء	-11.7106
installer	-11.7106
▁populaire	-11.7106
▁jamás	-11.7106
▁bienvenida	-11.7106
▁cielo	-11.7108
▁cuadrado	-11.711
تحاد	-11.7115
invente	-11.7118
▁الفنانين	-11.712
▁apple	-11.7122
▁nationale	-11.7123
▁وسن	-11.7123
▁SPECIFIC	-11.7124
▁CLIMATE	-11.7124
▁GRAND	-11.7124
ستايل	-11.7124
▁claramente	-11.7127
▁fonctionnement	-11.7129
▁inicia	-11.713
تمكن	-11.7131
▁nave	-11.7135
▁piso	-11.7136
▁volume	-11.7139
▁Première	-11.7142
▁scénario	-11.7142
▁لبعض	-11.7145
نظام	-11.7146
▁tape	-11.7147
▁imaginez	-11.7149
▁يقعد	-11.7149
VU	-11.715
▁وماذا	-11.7153
▁CONCEPT	-11.716
▁UNIVERSE	-11.716
▁comprado	-11.716
▁كوب	-11.7161
▁morale	-11.7163
▁exercices	-11.7164
▁الحرارة	-11.7165
▁montage	-11.7169
زاز	-11.717
▁HEALTHY	-11.7171
▁venden	-11.7173
▁hors	-11.7174
▁Comp	-11.7176
▁discipline	-11.7177
▁officiel	-11.7177
▁plata	-11.7178
▁definitivamente	-11.7179
▁auteurs	-11.7184
▁LISTENING	-11.7187
ختم	-11.7189
▁الروسي	-11.719
عضاء	-11.7192
▁búsqueda	-11.7195
▁considéré	-11.7195
▁maravillosa	-11.7195
▁défaut	-11.7196
▁وجدت	-11.7196
▁firma	-11.7197
▁mirada	-11.7198
▁يرى	-11.7199
▁PLAYING	-11.7199
▁certes	-11.7199
▁والآن	-11.7202
phone	-11.7203
▁jolie	-11.7207
▁creación	-11.721
▁habitual	-11.7213
▁cycle	-11.7217
▁هاذي	-11.722
▁rentrée	-11.7223
▁haría	-11.7229
▁التفكير	-11.7231
▁وذلك	-11.7231
▁سوري	-11.7232
▁النقاط	-11.7232
▁الصراحة	-11.7233
▁libera	-11.7233
ancienne	-11.7234
▁القديم	-11.7234
▁courte	-11.7235
▁prête	-11.7236
عقب	-11.7238
▁passionné	-11.7249
▁mexicano	-11.7249
punt	-11.725
▁مبلغ	-11.7252
▁Encore	-11.7253
occupe	-11.7254
▁EMOTIONAL	-11.7255
EH	-11.7258
▁الحمدلله	-11.7258
▁نحتاج	-11.7265
▁recul	-11.7266
▁definición	-11.7267
▁thriller	-11.7267
▁figure	-11.7267
JH	-11.7271
▁profe	-11.7271
BOARD	-11.7272
▁العدد	-11.7272
▁مستو	-11.7277
▁presse	-11.7281
▁personalmente	-11.7281
CHES	-11.7282
ingénieur	-11.7285
▁SOURCE	-11.7285
▁intelligent	-11.7285
▁TRULY	-11.7285
▁mérite	-11.7285
▁المدارس	-11.7285
▁عطر	-11.7287
▁expresión	-11.7287
سيء	-11.7287
▁péri	-11.7287
▁ambos	-11.7288
▁exige	-11.7288
▁أحداث	-11.7289
▁bilan	-11.7289
▁durable	-11.7289
▁constantemente	-11.729
▁exceptionnel	-11.7291
▁industriel	-11.7293
بديل	-11.7294
▁Paul	-11.7294
▁أسوي	-11.7296
▁solaire	-11.7299
venait	-11.7302
▁عيون	-11.7303
▁diplôme	-11.7303
▁maravilla	-11.7303
▁suffisamment	-11.7303
▁COMMIT	-11.7303
▁curioso	-11.7303
indique	-11.7303
▁DRAW	-11.7304
▁معدل	-11.7311
▁DEAD	-11.7311
▁acorde	-11.7312
lice	-11.7316
▁homo	-11.7317
▁الجزائري	-11.732
▁permanente	-11.7321
▁INSPIRE	-11.7321
▁SCALE	-11.7321
▁muerto	-11.7321
▁premio	-11.7321
▁السياسة	-11.7322
▁trace	-11.7323
نتخب	-11.7326
نظار	-11.7326
سعر	-11.7327
▁شعور	-11.7333
▁anteriores	-11.7335
▁BUS	-11.7338
▁RESPONSE	-11.7339
▁circunstancia	-11.7339
▁convierte	-11.7339
▁العائلة	-11.7339
▁plato	-11.7342
▁secondaire	-11.7345
back	-11.7347
▁الثقافة	-11.7348
▁الداخلية	-11.7357
▁précisément	-11.7357
▁بسهولة	-11.7358
▁casque	-11.736
▁السبع	-11.7361
▁Más	-11.7362
RDS	-11.7365
▁المستشفى	-11.7366
ستخدام	-11.7367
Ah	-11.7372
▁لحم	-11.7373
▁PLEASE	-11.7376
▁conexión	-11.7376
▁souhait	-11.7376
▁brazo	-11.7377
▁الحفل	-11.7377
▁وإنما	-11.7384
ستهدف	-11.7389
▁مؤمن	-11.739
▁pause	-11.7392
▁STRANGE	-11.7394
▁radical	-11.7394
▁fier	-11.7399
▁قراءة	-11.7399
TIME	-11.74
سوم	-11.7402
LIP	-11.7403
روق	-11.7406
▁يفضل	-11.7406
▁مستعد	-11.7407
▁cuestiona	-11.7412
▁profunda	-11.7412
▁واحنا	-11.7412
▁AGREE	-11.7413
▁implementa	-11.7413
جنب	-11.7413
▁morir	-11.7415
▁موسم	-11.7416
▁تعبان	-11.7422
▁factor	-11.7426
▁empezando	-11.743
▁méxico	-11.743
▁signifie	-11.743
écologie	-11.7431
work	-11.7433
▁متع	-11.7435
instrument	-11.7439
▁apoyar	-11.7439
▁réussite	-11.7444
▁NEGATIVE	-11.7449
▁discussion	-11.7449
▁septembre	-11.7449
▁abierta	-11.7449
▁retenir	-11.7449
▁GUESS	-11.7449
▁البطولة	-11.745
▁rápidamente	-11.7452
▁شراء	-11.7452
شغف	-11.7454
▁ALLOWED	-11.746
جزء	-11.7463
تداول	-11.7463
ish	-11.7465
nette	-11.7465
▁sustancia	-11.7467
▁ROBOT	-11.7467
▁misterio	-11.7467
posiciones	-11.7467
▁اهتمام	-11.7468
▁واليوم	-11.7468
▁الانجليزي	-11.7468
▁trabajado	-11.7469
▁وظيفة	-11.7472
ويس	-11.7473
▁LIVED	-11.7475
▁distinto	-11.7475
▁aprendí	-11.7483
▁شخصيات	-11.7483
AZ	-11.7485
Wj	-11.7485
▁CRAZY	-11.7485
▁SEARCH	-11.7485
▁pintura	-11.7486
▁الطبيعة	-11.7486
▁tomando	-11.7489
▁خطوات	-11.749
▁بتحصل	-11.7491
▁misión	-11.7493
▁paye	-11.75
▁profesores	-11.7503
▁RESPECT	-11.7504
▁WRITING	-11.7504
▁accesorios	-11.7504
▁Aunque	-11.7504
▁ABSOLUTELY	-11.7505
▁النهارده	-11.7505
▁المدرب	-11.7505
▁LATE	-11.7506
▁prima	-11.7507
▁articles	-11.7508
جام	-11.7517
▁إد	-11.7521
class	-11.7522
▁ETF	-11.7522
غب	-11.7525
▁باختصار	-11.7527
aurait	-11.7528
سعودي	-11.7528
▁deriva	-11.753
▁cambiando	-11.7532
▁pouvons	-11.7532
▁BAN	-11.7533
▁يأكل	-11.7533
▁أغاني	-11.7533
▁نقرأ	-11.7538
مجموعات	-11.7541
▁ANYMORE	-11.7541
▁fameuse	-11.7541
autant	-11.7542
▁madera	-11.7542
▁brutal	-11.7542
▁naturellement	-11.7547
▁suivante	-11.7548
قبض	-11.7549
▁puls	-11.7551
▁gustaba	-11.7553
تلفزيون	-11.7556
▁utilizamos	-11.7556
▁يدفع	-11.7558
▁SPREAD	-11.7559
▁ECONOMY	-11.7559
▁INNOVATION	-11.7559
▁موسى	-11.756
▁EFFECTIVE	-11.7561
تباع	-11.7561
▁comunicar	-11.7562
▁التمثيل	-11.7562
▁الأخبار	-11.7567
▁Tous	-11.7568
▁cambiado	-11.7568
▁réf	-11.757
▁demostrar	-11.7572
▁الأفضل	-11.7572
▁MATH	-11.7576
▁قناتي	-11.7578
▁bibliothèque	-11.7578
▁adecuada	-11.7578
euxmêmes	-11.7578
▁MEMBER	-11.7578
▁SELL	-11.7581
▁عجبكم	-11.7582
▁largement	-11.7584
▁مهندس	-11.7585
▁enfrentar	-11.7586
illage	-11.7589
▁المواقع	-11.7591
▁MEDICINE	-11.7596
▁القاهرة	-11.7596
▁musical	-11.7596
africain	-11.7596
▁pertenece	-11.7596
▁démarre	-11.7597
▁رياضي	-11.7597
▁veamos	-11.7597
Guc	-11.7603
▁الشريف	-11.7604
▁propiedades	-11.7613
▁respecter	-11.7613
▁وخصوصا	-11.7615
▁titula	-11.7616
Mj	-11.7616
▁حامل	-11.7617
▁trauma	-11.7617
▁Petit	-11.7617
▁REACT	-11.7618
▁crédito	-11.7622
▁nouvel	-11.7622
▁regalo	-11.7625
▁fuimos	-11.7631
▁فتحت	-11.7634
▁CONSCIOUS	-11.7634
▁VIOLENCE	-11.7634
▁SECRET	-11.7634
▁dollars	-11.7634
▁QUICKLY	-11.7635
▁الدهب	-11.7638
▁يطلب	-11.7642
▁BOX	-11.7646
▁complète	-11.7649
▁STARTING	-11.7651
▁NEIGHBOR	-11.7652
▁EMPLOY	-11.7652
▁prince	-11.7653
▁DROP	-11.7654
▁bomba	-11.7657
UU	-11.7658
▁بنسبة	-11.7669
▁EVENTUALLY	-11.7671
▁véhicule	-11.7671
▁enfoque	-11.7671
▁tension	-11.7672
▁formula	-11.7673
برمج	-11.7676
▁journaliste	-11.7681
▁Français	-11.769
▁renovable	-11.769
▁ministre	-11.769
▁احلى	-11.769
intention	-11.769
▁ثانيا	-11.7698
▁terminal	-11.7701
نشف	-11.7701
غلق	-11.7704
▁boire	-11.7705
identifi	-11.7705
▁صرت	-11.7708
▁مظبوط	-11.7709
▁inmediata	-11.7709
▁استفدت	-11.7709
▁continent	-11.771
▁TOOLS	-11.771
ضرورة	-11.7711
▁مساحة	-11.7711
mmer	-11.7712
▁السابع	-11.7712
▁بيئة	-11.7713
▁vital	-11.7714
▁aprovecha	-11.7716
▁roule	-11.7717
wk	-11.7717
▁sensibili	-11.7722
جور	-11.7722
▁choc	-11.7724
▁cuir	-11.7727
▁musulman	-11.7727
▁printemps	-11.7727
▁reducir	-11.7728
▁écologique	-11.7728
▁MOVING	-11.7729
▁cadena	-11.7729
▁MINE	-11.7731
▁librería	-11.7733
▁continua	-11.7739
▁vér	-11.7741
▁filtre	-11.7742
▁WALL	-11.7744
▁CHECK	-11.7746
▁PURPOSE	-11.7746
▁raíces	-11.7746
▁volumen	-11.7749
▁conversación	-11.7751
▁TRAINING	-11.7753
▁anteriormente	-11.7753
▁prove	-11.7755
▁hop	-11.7758
KP	-11.7759
▁BALL	-11.7759
بقا	-11.7765
▁SUGGEST	-11.7765
▁chouette	-11.7765
▁considère	-11.7765
▁ثابت	-11.7765
▁finanzas	-11.7765
▁vérifier	-11.7765
سئول	-11.7766
▁بالطريقة	-11.7771
▁الصفر	-11.7772
▁estudiando	-11.7773
LW	-11.7773
▁MALE	-11.7773
▁رضي	-11.7774
▁بالزبط	-11.7774
عطل	-11.7776
▁tranqui	-11.7776
▁Quelle	-11.7778
▁reprend	-11.778
▁WONDERFUL	-11.7783
▁desafío	-11.7784
▁fenómeno	-11.7784
▁típico	-11.7784
▁GREEN	-11.7784
خفض	-11.7786
ónico	-11.7791
fran	-11.7791
iQ	-11.7792
غول	-11.7801
▁azúcar	-11.7803
▁bouteille	-11.7803
▁manager	-11.7803
▁hotel	-11.7803
▁بكثير	-11.7804
▁discuter	-11.7804
رخيص	-11.7806
▁beneficio	-11.7807
▁colère	-11.781
حمام	-11.7811
assure	-11.7812
▁لعند	-11.7815
▁fortement	-11.7815
▁المعنى	-11.7821
▁matériau	-11.7822
▁remarqué	-11.7822
▁GRADE	-11.7824
▁profondeur	-11.7825
habite	-11.7826
خالف	-11.7827
▁actuar	-11.7828
▁salido	-11.7838
▁adolescente	-11.7839
▁BEYOND	-11.7841
▁Netflix	-11.7841
▁email	-11.7842
▁مناطق	-11.7842
▁traiter	-11.7845
▁río	-11.7848
▁انواع	-11.785
PK	-11.7857
▁impresionante	-11.786
▁David	-11.786
▁aceite	-11.786
▁تليفون	-11.786
excuse	-11.7861
esthétique	-11.7861
▁استثمار	-11.7861
▁مليان	-11.7866
qk	-11.7867
▁solide	-11.787
▁عنوان	-11.7874
ندم	-11.7874
amuse	-11.7877
hôpital	-11.7879
▁científica	-11.7879
▁liquide	-11.7879
▁raíz	-11.7879
▁elabora	-11.788
▁pedido	-11.788
▁مبروك	-11.788
▁investigar	-11.7881
▁INVOLVED	-11.7883
▁الوزن	-11.7883
صرح	-11.7883
▁cómic	-11.7884
abonnés	-11.7886
▁READING	-11.7894
▁ENGLISH	-11.7899
▁WROTE	-11.7899
▁cuadro	-11.7899
▁MOVIE	-11.7899
accroche	-11.7899
▁والاست	-11.7902
▁revend	-11.7904
تنفس	-11.7912
تقاد	-11.7917
▁NOBODY	-11.7918
▁challenge	-11.7918
▁cumple	-11.7918
accent	-11.7919
▁TABLE	-11.7923
enseignant	-11.7924
قاط	-11.7924
تخذ	-11.7931
▁jeunesse	-11.7933
▁remet	-11.7934
▁tendremos	-11.7937
▁المؤتمر	-11.7937
▁القهوة	-11.7937
▁soimême	-11.7937
▁dejamos	-11.7938
▁globalement	-11.7939
▁وبتاع	-11.794
▁يكمل	-11.794
▁jaune	-11.7943
▁ordenador	-11.7943
▁aleja	-11.7944
▁subiendo	-11.7947
affiche	-11.7951
صيف	-11.7951
▁BROTHER	-11.7956
▁légumes	-11.7956
▁hermoso	-11.7956
▁emoción	-11.7956
عروض	-11.7956
▁empleo	-11.7956
▁PARK	-11.7957
▁logement	-11.7957
▁احتمال	-11.7957
▁الوالد	-11.7959
▁اتجاه	-11.7959
▁حبيبتي	-11.7961
▁sumamente	-11.7962
▁internationale	-11.7964
euros	-11.7965
▁استاذ	-11.7972
▁FACTOR	-11.7973
▁كورس	-11.7974
تدرب	-11.7974
▁invité	-11.7976
▁désolé	-11.7976
▁PULL	-11.7977
▁barrio	-11.798
سوف	-11.7982
توسع	-11.7986
HJ	-11.7993
▁FUNDAMENTAL	-11.7995
▁atteint	-11.7995
▁tuvimos	-11.7995
▁كومنت	-11.7996
▁وكلام	-11.7996
▁اتفاق	-11.7998
▁HOUR	-11.8
Cj	-11.8002
▁comprender	-11.8002
جديد	-11.8004
▁rayon	-11.8005
▁creatividad	-11.8014
▁مخل	-11.8019
قترح	-11.802
▁joueur	-11.8022
خلاص	-11.8025
قسام	-11.8028
▁INSTITUTION	-11.8034
▁فيسبوك	-11.8034
▁ملابس	-11.8034
▁necesariamente	-11.8036
غيب	-11.8044
▁ننتقل	-11.8046
▁playa	-11.805
▁GREW	-11.8054
▁concrètement	-11.8055
▁إعلان	-11.8058
explication	-11.8061
▁verdadero	-11.8061
▁الشف	-11.8071
فاد	-11.8072
▁RECEIVE	-11.8073
▁jugando	-11.8073
▁tissu	-11.8075
بوكس	-11.8077
▁رحمة	-11.8078
▁rapproche	-11.808
▁حابين	-11.8082
▁السوشال	-11.8082
ILITY	-11.8082
jito	-11.8085
ONG	-11.8089
▁porcentaje	-11.8092
▁recuerden	-11.8092
▁électronique	-11.8092
▁entrenamiento	-11.8092
▁aventura	-11.8093
▁debido	-11.8094
▁nécessairement	-11.81
▁ماركت	-11.8104
▁banda	-11.8108
▁marco	-11.8108
inconscient	-11.8112
▁recién	-11.8112
▁كوميدي	-11.8112
▁permita	-11.8112
▁región	-11.8115
▁lecteur	-11.8117
▁كيفاش	-11.8117
▁أوقات	-11.8119
▁وقعت	-11.812
بواب	-11.8126
▁artistes	-11.8129
▁empiece	-11.8131
▁الدولار	-11.8134
▁cabe	-11.8134
▁inventa	-11.8141
▁منطقي	-11.8148
▁ENTER	-11.8148
existence	-11.8148
▁llevó	-11.8151
▁communiquer	-11.8151
▁ayude	-11.8153
▁clasifica	-11.8157
▁واذا	-11.8163
▁ESSENTIAL	-11.8171
▁caractère	-11.8171
▁religión	-11.8171
▁conozco	-11.8171
▁salarié	-11.8171
▁متوسط	-11.8171
▁الغرفة	-11.8171
▁اخترت	-11.8174
تعديل	-11.8177
ologue	-11.8177
▁إعادة	-11.8182
▁précédente	-11.8182
▁creando	-11.8186
▁تعليقات	-11.8187
▁puso	-11.8189
▁MEMORY	-11.819
▁PROGRESS	-11.819
▁revanche	-11.819
▁التغيير	-11.819
▁dialogue	-11.819
ándonos	-11.8191
▁VISION	-11.8191
▁respeta	-11.8191
▁composé	-11.8191
OUGHT	-11.8199
▁conversation	-11.8204
▁kilomètres	-11.821
▁habido	-11.8212
رقب	-11.8212
▁national	-11.8215
▁READY	-11.8219
▁cancer	-11.822
▁audessus	-11.823
▁soutenir	-11.823
▁probado	-11.823
▁fermé	-11.8231
▁أسماء	-11.8232
▁يغير	-11.8234
▁York	-11.8235
▁existencia	-11.8236
▁DEPEND	-11.825
▁croyance	-11.825
▁استراتيجي	-11.825
المشاريع	-11.825
تلقى	-11.825
▁dejó	-11.8252
▁ممتع	-11.8252
▁CITIES	-11.8252
عطاء	-11.8253
▁سيئة	-11.8257
▁olor	-11.8258
▁FIX	-11.8259
▁longueur	-11.826
قناع	-11.8267
▁Plat	-11.8269
▁departamento	-11.827
▁inspiré	-11.827
▁psychologique	-11.827
▁FORGET	-11.827
▁حكومة	-11.827
▁القدرة	-11.8271
▁متعود	-11.8273
▁الإعلان	-11.8273
▁LESSON	-11.828
▁Depuis	-11.829
▁presupuesto	-11.829
▁utilizo	-11.829
▁الإلكتروني	-11.829
▁الوظيفة	-11.829
▁progresser	-11.8291
▁ألوان	-11.8291
▁الشديد	-11.8292
▁Luc	-11.8292
envers	-11.8292
▁SHAPE	-11.8295
▁TREE	-11.8295
سوء	-11.83
▁étoiles	-11.83
▁حطيت	-11.8302
▁copia	-11.8305
▁necesaria	-11.8307
حياء	-11.8307
▁coste	-11.8308
فاجأ	-11.8309
▁FURTHER	-11.831
▁الحيوانات	-11.831
▁show	-11.831
▁حاسس	-11.831
▁الرأس	-11.8313
▁arranca	-11.8314
▁prépare	-11.8314
ستهلك	-11.8325
بودكاست	-11.833
▁metabolismo	-11.833
▁decidir	-11.833
▁ترتيب	-11.833
▁TEXT	-11.833
▁MONTH	-11.8331
▁mariage	-11.8333
Fk	-11.8335
زياء	-11.8336
▁lindo	-11.8348
▁MAP	-11.8349
حروف	-11.8349
▁BELIEF	-11.835
▁LITERALLY	-11.835
▁RECENTLY	-11.835
▁considero	-11.835
▁touché	-11.835
▁miembro	-11.835
▁licencia	-11.835
▁recibe	-11.835
▁pata	-11.8354
▁saludable	-11.8355
institut	-11.8355
▁publicidad	-11.8356
IFY	-11.8368
aurai	-11.837
▁SHIFT	-11.837
▁VISIT	-11.837
▁باستخدام	-11.8371
▁مهارة	-11.8371
▁النهائي	-11.8373
▁resté	-11.8375
▁الحديد	-11.8379
électricité	-11.839
▁Ustedes	-11.839
▁اليابان	-11.839
▁جنس	-11.839
▁معرفش	-11.839
▁pierna	-11.839
▁enjeux	-11.8391
▁attendant	-11.8391
▁مجاني	-11.8395
▁Tom	-11.8404
تراف	-11.8409
▁LIST	-11.8409
▁compréhension	-11.841
▁edificio	-11.841
▁manual	-11.8413
CHAR	-11.8414
omía	-11.8417
engagement	-11.8419
accident	-11.8421
▁predi	-11.8425
ستوعب	-11.8426
▁orgullo	-11.843
▁supplémentaire	-11.843
▁ambiental	-11.843
▁PREDICT	-11.843
▁convention	-11.8431
▁Quién	-11.8431
▁TOUCH	-11.8432
▁التجارة	-11.8432
▁retard	-11.8432
▁censé	-11.8433
▁vendu	-11.8435
▁ficción	-11.8438
▁لعل	-11.8439
صنف	-11.844
▁flores	-11.845
▁platicar	-11.8451
▁mention	-11.8453
▁distinta	-11.8453
▁hagamos	-11.8454
▁يعود	-11.8456
▁informe	-11.8457
armée	-11.8458
▁María	-11.8458
▁احترام	-11.8459
▁خيال	-11.8462
▁escribi	-11.8463
▁SPEAKING	-11.8465
▁utilizado	-11.8468
▁exterior	-11.8471
▁kilómetros	-11.8471
▁llegué	-11.8471
▁sauver	-11.8471
▁degrés	-11.8475
▁tabla	-11.8476
عزز	-11.8476
خطب	-11.8477
▁trabaj	-11.8478
▁compétition	-11.8491
▁naissance	-11.8491
▁botella	-11.8491
▁abrazo	-11.8491
▁aspira	-11.8491
▁FAIR	-11.8492
▁سعاد	-11.8492
▁اليونان	-11.8493
explore	-11.8494
▁coleccion	-11.8495
▁Sabe	-11.85
تفوق	-11.8507
affect	-11.8509
▁evoluciona	-11.8511
▁MISTAKE	-11.8511
▁MODERN	-11.8511
▁STRUCTURE	-11.8512
▁ليبيا	-11.8512
▁piedra	-11.8512
▁المهارات	-11.8512
سجن	-11.8512
▁cheval	-11.8513
▁exposición	-11.8516
▁إيران	-11.8522
▁النجم	-11.8522
نتيج	-11.8527
écart	-11.8528
▁ENJOY	-11.8532
▁frecuencia	-11.8532
attention	-11.8536
▁documento	-11.8539
▁DISCOVERED	-11.8539
▁وإيه	-11.8539
فوض	-11.8539
▁tendríamos	-11.854
▁doctora	-11.8541
▁الايام	-11.8542
▁SUPPOSED	-11.8552
▁dynamique	-11.8552
▁بالموضوع	-11.8552
▁morceau	-11.8552
▁الاسلام	-11.8554
▁critica	-11.8554
▁hauteur	-11.8554
JZ	-11.8556
▁قولنا	-11.8563
▁enseignants	-11.8567
▁نجوم	-11.8567
▁عباد	-11.8568
لول	-11.8569
mande	-11.857
▁زميل	-11.857
▁AFRAID	-11.8573
▁BIRTH	-11.8573
▁hermosa	-11.8573
▁تنسوش	-11.8573
▁pareció	-11.8573
▁avancé	-11.8573
▁الثورة	-11.8574
▁richesse	-11.8574
ضغ	-11.8575
ACTIVE	-11.8579
▁سنوي	-11.858
▁الكبار	-11.8583
▁COVER	-11.859
▁SUBJECT	-11.8593
▁apasiona	-11.8593
▁FOOT	-11.8593
▁potentiellement	-11.8594
▁extraño	-11.8594
▁يدور	-11.8601
▁تطوير	-11.8614
▁chinois	-11.8614
جائزة	-11.8615
▁اختلاف	-11.8615
▁EYE	-11.8618
▁falla	-11.8621
▁رأيكم	-11.8624
auront	-11.8627
▁adultes	-11.863
▁préparé	-11.8633
▁DESCRIBE	-11.8635
▁EVIDENCE	-11.8635
▁software	-11.8635
▁الهاتف	-11.8635
▁museo	-11.8636
▁بإمكان	-11.8636
▁humor	-11.8637
▁lunes	-11.8639
حلال	-11.864
ndido	-11.8643
▁detecta	-11.8647
جوع	-11.8653
▁GOOGLE	-11.8655
▁ansiedad	-11.8655
▁parecía	-11.8655
▁قطعة	-11.8655
▁بشيء	-11.8656
ستوديو	-11.866
روع	-11.8662
▁اشترك	-11.8662
▁hambre	-11.8664
▁wow	-11.8666
▁basé	-11.8668
جبال	-11.867
▁declara	-11.8676
▁ACCOUNT	-11.8676
▁PEACE	-11.8676
▁enseñanza	-11.8676
▁españa	-11.8676
▁conozca	-11.8676
▁China	-11.868
صعد	-11.868
allemand	-11.8681
▁directeur	-11.8693
▁يحفظ	-11.8695
employé	-11.8697
▁proteger	-11.8697
▁registra	-11.8697
▁analiza	-11.8697
▁offert	-11.8697
▁المعروف	-11.8697
▁famosa	-11.8697
▁RELATE	-11.8698
▁الجهة	-11.8699
▁انتهت	-11.87
تمام	-11.8701
▁sérieux	-11.8702
▁السعادة	-11.8703
ULATE	-11.8706
معادلة	-11.8708
▁العطور	-11.8709
▁paire	-11.8711
▁enviar	-11.8715
▁REVOLUTION	-11.8717
▁THREAT	-11.8717
▁HAIR	-11.8718
أجواء	-11.8719
▁ruido	-11.8721
▁tranquilo	-11.8725
▁بالعالم	-11.8727
ضيق	-11.8728
gramme	-11.8729
▁RACE	-11.8733
▁evolución	-11.8738
▁desarrollado	-11.8739
أقصى	-11.874
▁الخطوات	-11.8741
▁السيارات	-11.8741
▁gentil	-11.8741
بوز	-11.8753
institution	-11.8753
▁parlais	-11.8754
▁HOT	-11.8754
▁transmettre	-11.8759
▁intención	-11.8759
▁مشاريع	-11.8759
▁SKIN	-11.8759
investisseur	-11.8759
▁veste	-11.8761
▁chercheurs	-11.8762
▁específicamente	-11.8762
▁الرابط	-11.8762
أجنبي	-11.8767
▁expresar	-11.8771
XL	-11.8771
▁debate	-11.8773
قبر	-11.8775
جذب	-11.8777
▁dejando	-11.8777
▁sensor	-11.8779
▁PROFESSIONAL	-11.878
▁cariño	-11.878
▁curiosidad	-11.878
▁involucra	-11.878
▁routine	-11.878
▁مقارنة	-11.878
▁conocida	-11.878
▁publie	-11.8781
▁augmente	-11.8781
▁construye	-11.8782
خفف	-11.8785
▁الانتخابات	-11.8786
▁BIO	-11.8786
بعض	-11.8786
▁confortable	-11.8788
▁prépa	-11.8794
▁habilidad	-11.8795
▁يبحث	-11.8796
angu	-11.8797
توجيه	-11.8798
▁بنشوف	-11.8799
▁seguí	-11.88
▁FREEDOM	-11.8801
▁Obviamente	-11.8801
▁والاشتراك	-11.8801
▁conferencia	-11.8801
▁inflación	-11.8801
alcool	-11.8801
▁transparent	-11.8801
▁KEPT	-11.8801
▁BIGGER	-11.8802
▁عرفنا	-11.8802
▁billet	-11.8803
▁mole	-11.8806
▁WATCHING	-11.8811
▁FEMALE	-11.8822
▁HONEST	-11.8822
▁THROW	-11.8822
▁طبيب	-11.8829
▁UPON	-11.8835
▁plage	-11.8837
hôtel	-11.8843
▁expectativa	-11.8843
▁videojuego	-11.8843
▁ingresa	-11.8844
▁partida	-11.8844
صانع	-11.8846
▁hablaba	-11.8846
▁دعا	-11.8848
▁WISH	-11.885
▁nouveauté	-11.8856
▁moindre	-11.8858
▁FLOW	-11.8858
▁SEVERAL	-11.8864
▁consumir	-11.8869
▁MEETING	-11.8872
ticien	-11.8873
▁TEACHING	-11.8875
WORK	-11.8882
▁viaja	-11.8884
▁HAPPINESS	-11.8885
▁suscríbete	-11.8885
▁encantó	-11.8885
▁limité	-11.8885
▁cristal	-11.8886
▁boucle	-11.8886
IBR	-11.8887
▁دائر	-11.8887
▁expériment	-11.8896
▁يرد	-11.8896
▁DECIDE	-11.8898
▁QUALITY	-11.8907
▁fíjate	-11.8907
▁janvier	-11.8907
▁víctima	-11.8907
▁Harry	-11.8907
▁CHINA	-11.8907
▁conforme	-11.8908
Lh	-11.892
▁قعدت	-11.8921
▁Très	-11.8928
▁negocia	-11.8928
▁تصميم	-11.8928
▁profundo	-11.8928
▁vachement	-11.8928
▁branche	-11.8928
سينما	-11.8928
▁José	-11.8929
▁antigua	-11.8929
▁Grand	-11.8929
▁فهل	-11.8929
▁سابقا	-11.8931
عفو	-11.8931
▁غرفة	-11.8933
▁FUND	-11.8933
▁basique	-11.8936
même	-11.8939
stabil	-11.8939
▁esencial	-11.8946
خام	-11.8948
▁INCREDIBLE	-11.8949
▁PATTERN	-11.8949
▁SURVIVE	-11.8949
▁influencia	-11.8949
▁بالمناسبة	-11.8949
▁antiguo	-11.8949
▁فعشان	-11.8949
▁década	-11.895
ثمار	-11.8956
▁Cap	-11.8957
ثبات	-11.897
بالتأكيد	-11.897
▁APART	-11.897
▁DEPRESSION	-11.897
▁laboratoire	-11.897
▁Talleres	-11.897
▁PREVENT	-11.897
▁archivo	-11.897
حجز	-11.8972
مقاومة	-11.8973
▁التونسي	-11.8973
▁disposition	-11.8973
▁vieille	-11.8974
حترام	-11.8978
▁escuchando	-11.8979
▁ventana	-11.8982
عيوب	-11.8983
algorithme	-11.8992
▁المقدس	-11.8992
▁GAP	-11.8993
▁FILL	-11.8994
▁climat	-11.9005
▁يقال	-11.9008
▁suave	-11.901
▁فاضي	-11.9012
بوب	-11.9012
▁ELECTRIC	-11.9013
▁اكتشفت	-11.9014
▁electro	-11.9014
▁AMONG	-11.9014
▁إياها	-11.9014
▁proposition	-11.9015
▁وناس	-11.9021
▁CONNECTED	-11.9022
▁cruza	-11.9023
▁gama	-11.9029
▁Número	-11.9035
▁estuviera	-11.9035
▁promedio	-11.9035
▁dérange	-11.9035
▁asunto	-11.9035
▁الطيارة	-11.9035
▁سلوك	-11.9036
تمرن	-11.9039
▁SIZE	-11.9043
▁الكورس	-11.9043
بتعد	-11.9046
anime	-11.9048
observer	-11.9048
▁Algo	-11.905
تنافس	-11.905
▁facilita	-11.9056
▁spectacle	-11.9056
▁twitter	-11.9056
▁psychologie	-11.9056
▁DRINK	-11.9056
▁اليمين	-11.9058
▁الشيطان	-11.9058
▁INVENT	-11.906
حرص	-11.9063
▁ressent	-11.9069
▁Chine	-11.9071
عنف	-11.9073
▁RETURN	-11.9078
▁CITIZEN	-11.9078
▁COMPASSION	-11.9078
▁CONCERN	-11.9078
▁DEFINE	-11.9078
▁Incluso	-11.9078
▁ecosistema	-11.9078
▁CIVIL	-11.9078
▁الأحيان	-11.9078
رائحة	-11.9079
▁sentimos	-11.9084
ستشفى	-11.9089
▁machin	-11.9098
▁bisous	-11.9099
▁chirurgie	-11.9099
▁pierda	-11.91
▁dédié	-11.9101
▁فلن	-11.9104
حصر	-11.9108
▁نهائيا	-11.9113
تجربة	-11.9118
▁STRUGGLE	-11.9121
▁collectif	-11.9121
▁episodio	-11.9121
▁caminar	-11.9121
▁التربية	-11.9122
CF	-11.9126
▁barra	-11.9129
▁spécialisé	-11.913
▁guay	-11.9131
▁اجتماع	-11.9132
▁magie	-11.9135
▁legal	-11.9142
▁PERIOD	-11.9143
▁collège	-11.9143
▁repetir	-11.9143
▁abuelo	-11.9143
▁الاتنين	-11.9143
▁reloj	-11.9143
▁ROCK	-11.9144
▁AVERAGE	-11.9164
▁viernes	-11.9164
ándome	-11.9165
▁explico	-11.9165
inspiration	-11.9168
▁gira	-11.917
▁plateau	-11.9172
▁التصميم	-11.9186
▁almacena	-11.9186
▁مدريد	-11.9188
▁متاع	-11.9188
▁vote	-11.9189
▁Luis	-11.9192
▁الأسباب	-11.9192
▁يعتمد	-11.92
▁sentí	-11.9201
▁جواز	-11.9202
▁plaire	-11.9205
▁tapa	-11.9206
▁résoudre	-11.9208
▁énergétique	-11.9208
▁التكنولوجيا	-11.9208
▁jesús	-11.9208
▁confirma	-11.9209
▁savon	-11.9209
▁individuo	-11.9211
psvideoeswildgg	-11.9212
▁wey	-11.9219
▁ناقص	-11.922
▁USUALLY	-11.923
▁collective	-11.923
▁EXPERT	-11.923
▁pomme	-11.923
emprunt	-11.923
▁extremo	-11.923
▁EXTRA	-11.9231
▁الصفحة	-11.9232
▁GROWTH	-11.9232
▁Chaque	-11.9238
audit	-11.9246
assurance	-11.9252
▁DEGREE	-11.9252
▁adicional	-11.9252
▁vivido	-11.9252
▁récent	-11.9257
▁MINUTE	-11.9257
avons	-11.926
épisode	-11.9262
▁ADDRESS	-11.9274
▁UNIQUE	-11.9274
▁instituciones	-11.9274
▁TASK	-11.9274
▁compromet	-11.9275
▁meuble	-11.9277
▁ياخذ	-11.9279
light	-11.9282
لتنمية	-11.9283
équation	-11.9296
▁POLICE	-11.9296
▁الاتفاق	-11.9296
▁ارتفاع	-11.9296
▁تجارب	-11.9296
▁ANIMAL	-11.9301
artisan	-11.9302
▁copie	-11.9303
▁crema	-11.9304
ajuste	-11.9305
نتقد	-11.9307
▁financement	-11.9308
▁العدو	-11.9312
kb	-11.9316
▁القوانين	-11.9318
▁البيانات	-11.9318
▁extraña	-11.9319
▁divide	-11.932
▁السلوك	-11.9324
▁Marie	-11.933
▁tourné	-11.9337
▁específica	-11.9337
▁potente	-11.9339
▁cinquième	-11.934
▁littéralement	-11.934
▁possède	-11.934
رطب	-11.934
▁méchant	-11.934
▁وقاعد	-11.9341
Qv	-11.9341
تفاهم	-11.9347
international	-11.9353
▁بغض	-11.9356
▁chasse	-11.9357
طمن	-11.9359
▁DISCUSS	-11.9362
▁justicia	-11.9362
▁sábado	-11.9362
▁paysage	-11.9371
▁عدو	-11.9373
▁lleve	-11.9375
▁DEVELOPED	-11.9375
▁rassure	-11.9377
▁dinámica	-11.9384
▁experimento	-11.9384
▁resumen	-11.9384
برنامج	-11.9385
▁cuerda	-11.9385
تباه	-11.9389
▁agente	-11.9399
▁DIGITAL	-11.9407
▁IDENTITY	-11.9407
▁anuncio	-11.9407
▁ocurrió	-11.9407
▁consigue	-11.9407
▁toilette	-11.9407
▁مواقف	-11.9407
▁vincula	-11.9409
▁السحر	-11.941
▁جرس	-11.9411
▁HIGHER	-11.9419
صوم	-11.942
valu	-11.9427
▁formidable	-11.9429
▁randonnée	-11.9429
▁residuo	-11.9429
▁añadir	-11.9429
▁حياتهم	-11.9432
▁سنقوم	-11.9436
ستقر	-11.944
▁القوات	-11.9445
▁جربت	-11.9446
▁مهرجان	-11.9446
▁Montréal	-11.9451
▁auquel	-11.9452
أسوأ	-11.9452
▁ellemême	-11.9454
▁transformation	-11.9462
oeil	-11.9462
▁إنتاج	-11.9465
▁وخا	-11.9472
▁ANYBODY	-11.9474
▁DEVICE	-11.9474
▁EFFORT	-11.9474
▁créativité	-11.9474
▁sourire	-11.9474
▁intereses	-11.9474
▁dessinée	-11.9475
▁recomendación	-11.9476
▁quotidienne	-11.9477
▁الهواء	-11.9481
▁minuto	-11.9492
établissement	-11.9496
▁Surtout	-11.9496
▁molécule	-11.9496
▁poésie	-11.9496
interview	-11.9496
شروع	-11.9496
▁refiere	-11.9496
▁FAILURE	-11.9497
▁contrainte	-11.9497
▁SUDDENLY	-11.9498
ícula	-11.9498
ponía	-11.9503
▁Chile	-11.9505
▁chante	-11.9507
▁biais	-11.9509
▁marge	-11.951
عتذر	-11.9518
[...]
